node {
  name: "global_step/Initializer/zeros"
  op: "Const"
  attr {
    key: "_class"
    value {
      list {
        s: "loc:@global_step"
      }
    }
  }
  attr {
    key: "_output_shapes"
    value {
      list {
        shape {
        }
      }
    }
  }
  attr {
    key: "dtype"
    value {
      type: DT_INT64
    }
  }
  attr {
    key: "value"
    value {
      tensor {
        dtype: DT_INT64
        tensor_shape {
        }
        int64_val: 0
      }
    }
  }
}
node {
  name: "global_step"
  op: "VariableV2"
  attr {
    key: "_class"
    value {
      list {
        s: "loc:@global_step"
      }
    }
  }
  attr {
    key: "_output_shapes"
    value {
      list {
        shape {
        }
      }
    }
  }
  attr {
    key: "container"
    value {
      s: ""
    }
  }
  attr {
    key: "dtype"
    value {
      type: DT_INT64
    }
  }
  attr {
    key: "shape"
    value {
      shape {
      }
    }
  }
  attr {
    key: "shared_name"
    value {
      s: ""
    }
  }
}
node {
  name: "global_step/Assign"
  op: "Assign"
  input: "global_step"
  input: "global_step/Initializer/zeros"
  attr {
    key: "T"
    value {
      type: DT_INT64
    }
  }
  attr {
    key: "_class"
    value {
      list {
        s: "loc:@global_step"
      }
    }
  }
  attr {
    key: "_output_shapes"
    value {
      list {
        shape {
        }
      }
    }
  }
  attr {
    key: "use_locking"
    value {
      b: true
    }
  }
  attr {
    key: "validate_shape"
    value {
      b: true
    }
  }
}
node {
  name: "global_step/read"
  op: "Identity"
  input: "global_step"
  attr {
    key: "T"
    value {
      type: DT_INT64
    }
  }
  attr {
    key: "_class"
    value {
      list {
        s: "loc:@global_step"
      }
    }
  }
  attr {
    key: "_output_shapes"
    value {
      list {
        shape {
        }
      }
    }
  }
}
node {
  name: "global_step/IsVariableInitialized"
  op: "IsVariableInitialized"
  input: "global_step"
  attr {
    key: "_class"
    value {
      list {
        s: "loc:@global_step"
      }
    }
  }
  attr {
    key: "_output_shapes"
    value {
      list {
        shape {
        }
      }
    }
  }
  attr {
    key: "dtype"
    value {
      type: DT_INT64
    }
  }
}
node {
  name: "global_step/cond/Switch"
  op: "Switch"
  input: "global_step/IsVariableInitialized"
  input: "global_step/IsVariableInitialized"
  attr {
    key: "T"
    value {
      type: DT_BOOL
    }
  }
  attr {
    key: "_output_shapes"
    value {
      list {
        shape {
        }
        shape {
        }
      }
    }
  }
}
node {
  name: "global_step/cond/switch_t"
  op: "Identity"
  input: "global_step/cond/Switch:1"
  attr {
    key: "T"
    value {
      type: DT_BOOL
    }
  }
  attr {
    key: "_output_shapes"
    value {
      list {
        shape {
        }
      }
    }
  }
}
node {
  name: "global_step/cond/switch_f"
  op: "Identity"
  input: "global_step/cond/Switch"
  attr {
    key: "T"
    value {
      type: DT_BOOL
    }
  }
  attr {
    key: "_output_shapes"
    value {
      list {
        shape {
        }
      }
    }
  }
}
node {
  name: "global_step/cond/pred_id"
  op: "Identity"
  input: "global_step/IsVariableInitialized"
  attr {
    key: "T"
    value {
      type: DT_BOOL
    }
  }
  attr {
    key: "_output_shapes"
    value {
      list {
        shape {
        }
      }
    }
  }
}
node {
  name: "global_step/cond/read"
  op: "Identity"
  input: "global_step/cond/read/Switch:1"
  attr {
    key: "T"
    value {
      type: DT_INT64
    }
  }
  attr {
    key: "_output_shapes"
    value {
      list {
        shape {
        }
      }
    }
  }
}
node {
  name: "global_step/cond/read/Switch"
  op: "RefSwitch"
  input: "global_step"
  input: "global_step/cond/pred_id"
  attr {
    key: "T"
    value {
      type: DT_INT64
    }
  }
  attr {
    key: "_class"
    value {
      list {
        s: "loc:@global_step"
      }
    }
  }
  attr {
    key: "_output_shapes"
    value {
      list {
        shape {
        }
        shape {
        }
      }
    }
  }
}
node {
  name: "global_step/cond/Switch_1"
  op: "Switch"
  input: "global_step/Initializer/zeros"
  input: "global_step/cond/pred_id"
  attr {
    key: "T"
    value {
      type: DT_INT64
    }
  }
  attr {
    key: "_class"
    value {
      list {
        s: "loc:@global_step"
      }
    }
  }
  attr {
    key: "_output_shapes"
    value {
      list {
        shape {
        }
        shape {
        }
      }
    }
  }
}
node {
  name: "global_step/cond/Merge"
  op: "Merge"
  input: "global_step/cond/Switch_1"
  input: "global_step/cond/read"
  attr {
    key: "N"
    value {
      i: 2
    }
  }
  attr {
    key: "T"
    value {
      type: DT_INT64
    }
  }
  attr {
    key: "_output_shapes"
    value {
      list {
        shape {
        }
        shape {
        }
      }
    }
  }
}
node {
  name: "global_step/add/y"
  op: "Const"
  attr {
    key: "_output_shapes"
    value {
      list {
        shape {
        }
      }
    }
  }
  attr {
    key: "dtype"
    value {
      type: DT_INT64
    }
  }
  attr {
    key: "value"
    value {
      tensor {
        dtype: DT_INT64
        tensor_shape {
        }
        int64_val: 0
      }
    }
  }
}
node {
  name: "global_step/add"
  op: "Add"
  input: "global_step/cond/Merge"
  input: "global_step/add/y"
  attr {
    key: "T"
    value {
      type: DT_INT64
    }
  }
  attr {
    key: "_output_shapes"
    value {
      list {
        shape {
        }
      }
    }
  }
}
node {
  name: "Log1p/x"
  op: "Const"
  device: "/device:CPU:0"
  attr {
    key: "_output_shapes"
    value {
      list {
        shape {
          dim {
            size: 404
          }
          dim {
            size: 13
          }
        }
      }
    }
  }
  attr {
    key: "dtype"
    value {
      type: DT_DOUBLE
    }
  }
  attr {
    key: "value"
    value {
      tensor {
        dtype: DT_DOUBLE
        tensor_shape {
          dim {
            size: 404
          }
          dim {
            size: 13
          }
        }
        tensor_content: "c\321tv2\270\363?\000\000\000\000\000\000\000\000H\341z\024\256G @\000\000\000\000\000\000\000\000\236\357\247\306K7\341?\305 \260rh\221\030@\315\314\314\314\314\354V@\377\262{\362\260\320\017@\000\000\000\000\000\000\020@\000\000\000\000\0000s@\000\000\000\000\000\0005@fffff\316x@\270\036\205\353Q\2702@\355\273\"\370\337J\226?\000\000\000\000\000\240T@=\n\327\243p=\000@\000\000\000\000\000\000\000\000\217\302\365(\\\217\332?q=\n\327\243p\036@ffffff/@\024\256G\341z\024\031@\000\000\000\000\000\000\000@\000\000\000\000\000\300u@ffffff-@\256G\341z\024\266x@\341z\024\256G\341\010@\326s\322\373\306\227\023@\000\000\000\000\000\000\000\000\232\231\231\231\231\0312@\000\000\000\000\000\000\000\000\376\324x\351&1\344?\341z\024\256G\341\023@\000\000\000\000\000\000Y@R\270\036\205\353Q\365?\000\000\000\000\000\0008@\000\000\000\000\000\320\204@3333334@\270\036\205\353Qxw@\024\256G\341z\024\n@+j0\r\303G\244?\000\000\000\000\000\000\000\000\303\365(\\\217\302\024@\000\000\000\000\000\000\000\000{\024\256G\341z\340?\331\316\367S\343%\030@\000\000\000\000\000@A@\305\376\262{\362\360\027@\000\000\000\000\000\000\024@\000\000\000\000\000\000l@3333334@fffff\316x@\205\353Q\270\036\005 @\226>tA}\213\r@\000\000\000\000\000\000\000\000\232\231\231\231\231\0312@\000\000\000\000\000\000\000\0007\211A`\345\320\346?\033/\335$\006\201\031@\232\231\231\231\231\031V@(~\214\271k\211\004@\000\000\000\000\000\0008@\000\000\000\000\000\320\204@3333334@{\024\256G\341vx@\315\314\314\314\314L-@]\212\253\312\276+\322?\000\000\000\000\000\000\000\000\205\353Q\270\036\205\035@\000\000\000\000\000\000\000\000Zd;\337O\215\337?\242E\266\363\375\324\026@33333\223R@\030\225\324\th\342\022@\000\000\000\000\000\000\024@\000\000\000\000\000\360q@\232\231\231\231\231\2313@\256G\341z\024rx@{\024\256G\341z\'@Ve\337\025\301_\"@\000\000\000\000\000\000\000\000\232\231\231\231\231\0312@\000\000\000\000\000\000\000\000ffffff\346?\276\237\032/\335$\026@\000\000\000\000\000\000Y@\014\223\251\202QI\371?\000\000\000\000\000\0008@\000\000\000\000\000\320\204@3333334@fffff\316x@\232\231\231\231\231\2317@\210\205Z\323\274c\020@\000\000\000\000\000\000\000\000\024\256G\341z\2243@\000\000\000\000\000\000\000\000\254\034Zd;\337\353?\254\034Zd;\337\025@\000\000\000\000\000\000Y@\202\342\307\230\273\226\366?\000\000\000\000\000\000\024@\000\000\000\000\0000y@ffffff-@fffff\316x@\354Q\270\036\205k:@Z\365\271\332\212=\001@\000\000\000\000\000\000\000\000\024\256G\341z\2243@\000\000\000\000\000\000\000\000\254\034Zd;\337\353?P\215\227n\022\203\026@\000\000\000\000\000\000Y@N\321\221\\\376C\370?\000\000\000\000\000\000\024@\000\000\000\000\0000y@ffffff-@q=\n\327\243(e@fffff\2460@\255Q\017\321\350\016\372?\000\000\000\000\000\000\000\000\244p=\n\327\3435@\000\000\000\000\000\000\000\000+\207\026\331\316\367\343?\372~j\274t\023\024@\000\000\000\000\000\000Y@d\314]K\310\007\367?\000\000\000\000\000\000\020@\000\000\000\000\000P{@3333335@fffff\316x@\024\256G\341z4A@\342\314\257\346\0001#@\000\000\000\000\000\000\000\000\232\231\231\231\231\0312@\000\000\000\000\000\000\000\000\223\030\004V\016-\346?\004V\016-\262\235\031@\000\000\000\000\000\000Y@\323Mb\020X9\372?\000\000\000\000\000\0008@\000\000\000\000\000\320\204@3333334@\366(\\\217\302\201w@\217\302\365(\\O4@V\016-\262\235\3172@\000\000\000\000\000\000\000\000\232\231\231\231\231\0312@\000\000\000\000\000\000\000\000\264\310v\276\237\032\343?P\215\227n\022\203\022@\000\000\000\000\000\000Y@\006\022\024?\306\334\370?\000\000\000\000\000\0008@\000\000\000\000\000\320\204@3333334@\n\327\243p=\312<@\217\302\365(\\/A@W`\310\352V\317\301?\000\000\000\000\000\000\000\000333333\020@\000\000\000\000\000\000\000\000R\270\036\205\353Q\340?}?5^\272I\026@\000\000\000\000\000 V@0*\251\023\320\304\004@\000\000\000\000\000\000\024@\000\000\000\000\000\200r@\232\231\231\231\231\2310@fffff\316x@\341z\024\256Ga-@\213\340\177+\331\261\016@\000\000\000\000\000\000\000\000\232\231\231\231\231\0312@\000\000\000\000\000\000\000\000\244p=\n\327\243\350?\033/\335$\006\001\031@fffff\306V@w\276\237\032/]\002@\000\000\000\000\000\0008@\000\000\000\000\000\320\204@3333334@fffff\352u@\341z\024\256Ga,@\'\302\206\247W\312\330?\000\000\000\000\000\000\000\000fffff\2469@\000\000\000\000\000\000\000\000d;\337O\215\227\342?\301\312\241E\266s\026@fffff\346W@\314\177H\277}\035\374?\000\000\000\000\000\000\000@\000\000\000\000\000\200g@\232\231\231\231\231\0313@q=\n\327\243tv@\303\365(\\\217B;@\3122\304\261.bR@\000\000\000\000\000\000\000\000\232\231\231\231\231\0312@\000\000\000\000\000\000\000\000\356|?5^\272\345?\207\026\331\316\367\323\027@\000\000\000\000\000\000Y@HP\374\030s\327\374?\000\000\000\000\000\0008@\000\000\000\000\000\320\204@3333334@33333s0@\037\205\353Q\270\2364@d\222\221\263\260\'\032@\000\000\000\000\000\000\000\000\232\231\231\231\231\0312@\000\000\000\000\000\000\360?\376\324x\351&1\344?\252\361\322Mb\020\034@\000\000\000\000\000`X@\314]K\310\007=\363?\000\000\000\000\000\0008@\000\000\000\000\000\320\204@3333334@\315\314\314\314\314\200x@\256G\341z\024\256\007@\004\377[\311\216\215\260?\000\000\000\000\000\200Q@\354Q\270\036\205\353\001@\000\000\000\000\000\000\000\000\232\231\231\231\231\231\331?\341z\024\256Ga\031@\232\231\231\231\231\0314@\344\203\236\315\252O\037@\000\000\000\000\000\000\024@\000\000\000\000\000`v@\232\231\231\231\231\231-@\244p=\n\327\003w@\341z\024\256G\341\023@3\304\261.n\243\241?\000\000\000\000\000\240T@=\n\327\243p=\000@\000\000\000\000\000\000\000\000\217\302\365(\\\217\332?\331\316\367S\343\245\030@333333C@\024\256G\341z\024\031@\000\000\000\000\000\000\000@\000\000\000\000\000\300u@ffffff-@\270\036\205\353Q\234x@\270\036\205\353Q\270\035@\017\227\034wJ\007\303?\000\000\000\000\000\000\000\000\037\205\353Q\270\036!@\000\000\000\000\000\000\000\000\244p=\n\327\243\340?\234\304 \260r\350\032@\232\231\231\231\231\371S@b\241\3264\3578\006@\000\000\000\000\000\000\024@\000\000\000\000\000\000x@fffff\3464@\\\217\302\365(\254x@\327\243p=\n\327\"@x\234\242#\271\324B@\000\000\000\000\000\000\000\000\232\231\231\231\231\0312@\000\000\000\000\000\000\000\000\356|?5^\272\345?\002+\207\026\331\316\030@\315\314\314\314\314\254S@\221~\373:p\316\375?\000\000\000\000\000\0008@\000\000\000\000\000\320\204@3333334@R\270\036\205\353\3212@\n\327\243p=\n-@\263\315\215\351\tK\234?\000\000\000\000\000\300R@\232\231\231\231\231\231\007@\000\000\000\000\000\000\000\0001\010\254\034Zd\333?\341z\024\256Ga\032@\315\314\314\314\314\3145@\320\263Y\365\271\232\025@\000\000\000\000\000\000\010@\000\000\000\000\000\200o@\315\314\314\314\314L2@\256G\341z\024\272x@H\341z\024\256G\021@\333m\027\232\3534\222?\000\000\000\000\000\300W@\205\353Q\270\036\205\367?\000\000\000\000\000\000\000\000\230n\022\203\300\312\331?\n\327\243p=\212\034@\315\314\314\314\314\314+@[\323\274\343\024\235\036@\000\000\000\000\000\000\010@\000\000\000\000\000 y@\000\000\000\000\000\0001@\315\314\314\314\314\004x@\315\314\314\314\314\314\021@\211\265\370\024\000\343y?\000\000\000\000\000\0002@{\024\256G\341z\002@\000\000\000\000\000\000\000\000\236\357\247\306K7\341?\315\314\314\314\314L\032@\315\314\314\314\314LP@\\\217\302\365(\\\020@\000\000\000\000\000\000\360?\000\000\000\000\000\200r@\232\231\231\231\231\231.@fffff\316x@\354Q\270\036\205\353\023@2\254\342\215\314#\237?\000\000\000\000\000\000\000\000\303\365(\\\217\302\024@\000\000\000\000\000\000\000\000{\024\256G\341z\340?\024\256G\341z\224\027@\315\314\314\314\314\314M@\366(\\\217\302u\026@\000\000\000\000\000\000\024@\000\000\000\000\000\000l@3333334@)\\\217\302\365\254x@\037\205\353Q\270\036%@\204*5{\240\245#@\000\000\000\000\000\000\000\000\232\231\231\231\231\0312@\000\000\000\000\000\000\000\000F\266\363\375\324x\345?\223\030\004V\016-\033@33333\263X@\356|?5^\272\365?\000\000\000\000\000\0008@\000\000\000\000\000\320\204@3333334@fffff\316x@=\n\327\243p=5@\321W\220f,\232\266?\000\000\000\000\000\000)@{\024\256G\341z\037@\000\000\000\000\000\000\000\000\370S\343\245\233\304\340??5^\272I\014\030@fffff\246P@\313\241E\266\363=\026@\000\000\000\000\000\000\024@\000\000\000\000\000ps@ffffff.@\232\231\231\231\231\271x@\\\217\302\365(\334(@5\007\010\346\350\361\233?\000\000\000\000\000\000\000\000H\341z\024\256G\034@\000\000\000\000\000\000\000\000j\274t\223\030\004\336?=\n\327\243p\275\034@\315\314\314\314\314\214N@\256\330_vO\336\023@\000\000\000\000\000\000\000@\000\000\000\000\000@n@\315\314\314\314\314\3141@\341z\024\256G\215x@\037\205\353Q\270\036\020@\034_{fI\200\345?\000\000\000\000\000\000\000\000H\341z\024\256G @\000\000\000\000\000\000\000\000\236\357\247\306K7\341?\215\227n\022\203@\027@33333\223V@\356|?5^\272\022@\000\000\000\000\000\000\020@\000\000\000\000\0000s@\000\000\000\000\000\0005@\256G\341z\024\216w@\037\205\353Q\270\236-@\372\263\037)\"\303\306?\000\000\000\000\000\000\000\000\341z\024\256Ga#@\000\000\000\000\000\000\000\000\270\036\205\353Q\270\342?-\262\235\357\247F\026@\000\000\000\000\000`R@\373\\m\305\3762\003@\000\000\000\000\000\000\030@\000\000\000\000\000px@3333333@\270\036\205\353Q\274x@333333.@9\326\305m4\200\247?\000\000\000\000\000@J@H\341z\024\256G\025@\000\000\000\000\000\000\000\000\354Q\270\036\205\353\331?\303\365(\\\217B\031@\315\314\314\314\314\314F@0*\251\023\320D\035@\000\000\000\000\000\000\030@\000\000\000\000\000Pr@\232\231\231\231\231\2310@fffff\316x@ffffff\036@?RD\206U\\\024@\000\000\000\000\000\000\000\000\232\231\231\231\231\0312@\000\000\000\000\000\000\000\0007\211A`\345\320\346?\343\245\233\304 0\031@33333\363V@\374\030s\327\022\362\002@\000\000\000\000\000\0008@\000\000\000\000\000\320\204@3333334@=\n\327\243p\021x@\205\353Q\270\036E1@\303G\304\224H\002\037@\000\000\000\000\000\000\000\000\232\231\231\231\231\0312@\000\000\000\000\000\000\000\0007\211A`\345\320\346?Nb\020X94\031@\315\314\314\314\314\354T@\026\373\313\356\311C\006@\000\000\000\000\000\0008@\000\000\000\000\000\320\204@3333334@\217\302\365(\\\003q@{\024\256G\341:0@[_$\264\345\334\360?\000\000\000\000\000\000\000\000H\341z\024\256G @\000\000\000\000\000\000\000\000\236\357\247\306K7\341?=\n\327\243p\275\027@\315\314\314\314\314L=@t$\227\377\220\376\021@\000\000\000\000\000\000\020@\000\000\000\000\0000s@\000\000\000\000\000\0005@\232\231\231\231\231-x@R\270\036\205\353Q\032@\337\375\361^\2652\241?\000\000\000\000\000\300R@\232\231\231\231\231\231\007@\000\000\000\000\000\000\000\0001\010\254\034Zd\333?\177j\274t\223\030\034@\232\231\231\231\231\231/@\320\263Y\365\271\232\025@\000\000\000\000\000\000\010@\000\000\000\000\000\200o@\315\314\314\314\314L2@R\270\036\205\353\271x@\256G\341z\024\256\377?j\207\277&k\324\325?\000\000\000\000\000\000\000\000\205\353Q\270\036\205\035@\000\000\000\000\000\000\000\000Zd;\337O\215\337?)\\\217\302\365\250\031@\315\314\314\314\314\014D@\030\225\324\th\342\022@\000\000\000\000\000\000\024@\000\000\000\000\000\360q@\232\231\231\231\231\2313@fffff\316x@{\024\256G\341z\030@\331Z_$\264\345\352?\000\000\000\000\000\000\000\000H\341z\024\256G @\000\000\000\000\000\000\000\000\236\357\247\306K7\341?L7\211A`e\026@\315\314\314\314\314lU@\341\013\223\251\202\321\021@\000\000\000\000\000\000\020@\000\000\000\000\0000s@\000\000\000\000\000\0005@\037\205\353Q\270\366r@\303\365(\\\217\2020@\314bb\363qm\362?\000\000\000\000\000\000\000\000H\341z\024\256G @\000\000\000\000\000\000\000\000\236\357\247\306K7\341?\347\373\251\361\322\315\026@\000\000\000\000\000\300W@#J{\203/L\016@\000\000\000\000\000\000\020@\000\000\000\000\0000s@\000\000\000\000\000\0005@\270\036\205\353Qlv@\232\231\231\231\231Y2@\360P\024\350\023y\326?\000\000\000\000\000\000\000\000\205\353Q\270\036\205\035@\000\000\000\000\000\000\000\000Zd;\337O\215\337?D\213l\347\373)\030@33333\363H@\030\225\324\th\342\022@\000\000\000\000\000\000\024@\000\000\000\000\000\360q@\232\231\231\231\231\2313@fffff\316x@\315\314\314\314\314\314\036@\347\030\220\275\336\375\271?\000\000\000\000\000\000\000\000)\\\217\302\365\250)@\000\000\000\000\000\000\000\000+\207\026\331\316\367\333?\004V\016-\262\035\031@\000\000\000\000\000\240R@\241g\263\352s5\020@\000\000\000\000\000\000\024@\000\000\000\000\000\340x@33333\2632@\303\365(\\\217Zw@q=\n\327\243\360\'@\310$#gaO\303?\000\000\000\000\000\000\000\000=\n\327\243p\275;@\000\000\000\000\000\000\000\000\260rh\221\355|\343?7\211A`\345\320\025@\315\314\314\314\314,W@\030\225\324\th\"\375?\000\000\000\000\000\000\020@\000\000\000\000\0008\206@\232\231\231\231\231\0314@=\n\327\243p\261x@\217\302\365(\\\0172@\0221%\222\350e\304?\000\000\000\000\000\000\000\000\244p=\n\327\243\033@\000\000\000\000\000\000\000\000y\351&1\010\254\334?\362\322Mb\020\330\030@\000\000\000\000\000\000\032@\340\276\016\2343\342\026@\000\000\000\000\000\000\010@\000\000\000\000\000 m@fffff\3461@\217\302\365(\\\247x@\303\365(\\\217\302\035@J\265O\307c\006\252?\000\000\000\000\000\000\000\000\303\365(\\\217\302\024@\000\000\000\000\000\000\000\000{\024\256G\341z\340?\335$\006\201\225C\031@\315\314\314\314\314\014C@\023\362A\317f\325\031@\000\000\000\000\000\000\024@\000\000\000\000\000\000l@3333334@\217\302\365(\\[x@\270\036\205\353Q\270\026@?W[\261\277,&@\000\000\000\000\000\000\000\000\232\231\231\231\231\0312@\000\000\000\000\000\000\000\000`\345\320\"\333\371\346?\276\237\032/\335\244\031@\000\000\000\000\000\000Y@\347\214(\355\r\276\375?\000\000\000\000\000\0008@\000\000\000\000\000\320\204@3333334@\000\000\000\000\000\354s@\n\327\243p=\n.@\2343\242\2647\270*@\000\000\000\000\000\000\000\000\232\231\231\231\231\0312@\000\000\000\000\000\000\000\000\223\030\004V\016-\346??5^\272I\214\027@\315\314\314\314\314\254W@\3019#J{\203\374?\000\000\000\000\000\0008@\000\000\000\000\000\320\204@3333334@fffff\316x@\232\231\231\231\231Y0@\031\347oB!\002\350?\000\000\000\000\000\000\000\000H\341z\024\256G @\000\000\000\000\000\000\000\000\236\357\247\306K7\341?\031\004V\016-\262\027@fffff\206W@)\355\r\2760\231\021@\000\000\000\000\000\000\020@\000\000\000\000\0000s@\000\000\000\000\000\0005@\341z\024\256G\245x@\315\314\314\314\314L0@$EdX\305\033\325?\000\000\000\000\000\000\000\000\244p=\n\327\3435@\000\000\000\000\000\000\000\000+\207\026\331\316\367\343?}?5^\272I\027@\232\231\231\231\231\331W@\212\037c\356Z\302\003@\000\000\000\000\000\000\020@\000\000\000\000\000P{@3333335@\327\243p=\nKx@\217\302\365(\\\017.@\322\000\336\002\t\n\360?\000\000\000\000\000\000\000\000H\341z\024\256G @\000\000\000\000\000\000\000\000\236\357\247\306K7\341?\031\004V\016-\262\032@33333\323U@\333\371~j\274\364\020@\000\000\000\000\000\000\020@\000\000\000\000\0000s@\000\000\000\000\000\0005@H\341z\024\256\303w@\366(\\\217\302\365\'@\210c]\334F\003\345?\000\000\000\000\000\0004@\303\365(\\\217\302\017@\000\000\000\000\000\000\000\000Nb\020X9\264\344?\221\355|?5^\033@\000\000\000\000\000\000Y@\240\211\260\341\351\025\000@\000\000\000\000\000\000\024@\000\000\000\000\000\200p@\000\000\000\000\000\000*@{\024\256G\341~x@\232\231\231\231\231\231\033@\267b\177\331=\331\033@\000\000\000\000\000\000\000\000\232\231\231\231\231\0312@\000\000\000\000\000\000\000\000ffffff\346?\'1\010\254\034\332\026@\000\000\000\000\000@X@m\347\373\251\361\322\376?\000\000\000\000\000\0008@\000\000\000\000\000\320\204@3333334@{\024\256G\341\246x@\\\217\302\365(\0341@\347\000\301\034=~\257?\000\000\000\000\000\000\000\000\303\365(\\\217\302\024@\000\000\000\000\000\000\000\000{\024\256G\341z\340?\254\034Zd;\337\027@\000\000\000\000\000@M@\253>W[\261?\023@\000\000\000\000\000\000\024@\000\000\000\000\000\000l@3333334@fffff\316x@\024\256G\341z\224\"@HP\374\030s\327,@\000\000\000\000\000\000\000\000\232\231\231\231\231\0312@\000\000\000\000\000\000\000\000\256G\341z\024\256\347?\362\322Mb\020\330\031@33333SW@\276\301\027&S\005\000@\000\000\000\000\000\0008@\000\000\000\000\000\320\204@3333334@=\n\327\243p};@\315\314\314\314\314\0142@\342\222\343N\351`\340?\000\000\000\000\000\000\000\000\315\314\314\314\314\314\030@\000\000\000\000\000\000\000\000\323Mb\020X9\340?;\337O\215\227n\035@fffff\346Q@d;\337O\215\227\020@\000\000\000\000\000\000 @\000\000\000\000\0000s@ffffff1@\205\353Q\270\036ax@\354Q\270\036\205\353\022@\307\021k\361)\000\246?\000\000\000\000\000@J@H\341z\024\256G\025@\000\000\000\000\000\000\000\000\354Q\270\036\205\353\331?\303\365(\\\217B\032@fffff\3466@0*\251\023\320D\035@\000\000\000\000\000\000\030@\000\000\000\000\000Pr@\232\231\231\231\231\2310@\354Q\270\036\205;w@\205\353Q\270\036\005#@\027\267\321\000\336\202\002@\000\000\000\000\000\000\000\000\024\256G\341z\2243@\000\000\000\000\000\000\000\000\\\217\302\365(\\\343?\205\353Q\270\036\205\027@33333SX@@\244\337\276\016\034\003@\000\000\000\000\000\000\024@\000\000\000\000\0000y@ffffff-@\256G\341z\024\302u@\217\302\365(\\\017(@(D\300!T\251\261?\000\000\000\000\000\000\000\000fffff\2469@\000\000\000\000\000\000\000\000d;\337O\215\227\342?{\024\256G\341z\027@\315\314\314\314\314lQ@\000o\201\004\305\017\002@\000\000\000\000\000\000\000@\000\000\000\000\000\200g@\232\231\231\231\231\0313@fffffRx@=\n\327\243p\275,@\316\302\236v\370\373 @\000\000\000\000\000\000\000\000\232\231\231\231\231\0312@\000\000\000\000\000\000\000\000\343\245\233\304 \260\342?1\010\254\034Zd\031@fffff\206U@]\376C\372\355k\000@\000\000\000\000\000\0008@\000\000\000\000\000\320\204@3333334@\315\314\314\314\314\334T@\244p=\n\327\2431@d#\020\257\353w\035@\000\000\000\000\000\000\000\000\232\231\231\231\231\0312@\000\000\000\000\000\000\000\000\356|?5^\272\345?\022\203\300\312\241\305\030@fffff\206S@\2343\242\2647\370\376?\000\000\000\000\000\0008@\000\000\000\000\000\320\204@3333334@\037\205\353Q\270.X@\205\353Q\270\036\2055@g\233\033\323\023\226\270?\000\000\000\000\000\000D@\244p=\n\327\243\031@\000\000\000\000\000\000\000\000\317\367S\343\245\233\334?\321\"\333\371~j\033@ffffffE@\031\342X\027\267\021\021@\000\000\000\000\000\000\020@\000\000\000\000\000\300o@\232\231\231\231\231\2311@fffff\316x@\327\243p=\n\327\007@\036\376\232\254Q\017\261?\000\000\000\000\000\000\000\000333333\020@\000\000\000\000\000\000\000\000R\270\036\205\353Q\340?\311v\276\237\032/\032@\315\314\314\314\314\214@@\036\026jM\363\016\t@\000\000\000\000\000\000\024@\000\000\000\000\000\200r@\232\231\231\231\231\2310@\217\302\365(\\ox@R\270\036\205\353Q\025@\201&\302\206\247W\262?\000\000\000\000\000\000\000\000fffff\2469@\000\000\000\000\000\000\000\000d;\337O\215\227\342?j\274t\223\030\004\030@fffff\006U@\334\327\201sF\224\001@\000\000\000\000\000\000\000@\000\000\000\000\000\200g@\232\231\231\231\231\0313@\037\205\353Q\270\232w@\n\327\243p=\212,@-!\037\364lV\275?\000\000\000\000\000\0004@\327\243p=\n\327\033@\000\000\000\000\000\000\000\000\031\004V\016-\262\335?\364\375\324x\351&\032@\232\231\231\231\231YM@\327\243p=\nW\017@\000\000\000\000\000\000\010@\000\000\000\000\000\340k@\232\231\231\231\231\2312@\217\302\365(\\\257x@\354Q\270\036\205\353\036@\236\357\247\306Kw$@\000\000\000\000\000\000\000\000\232\231\231\231\231\0312@\000\000\000\000\000\000\000\000\331\316\367S\343\245\343?=\n\327\243p\275\030@\315\314\314\314\314,X@w\276\237\032/]\001@\000\000\000\000\000\0008@\000\000\000\000\000\320\204@3333334@33333\273w@H\341z\024\256\0072@\'\240\211\260\341\351\305?\000\000\000\000\000\000\000\000\037\205\353Q\270\036!@\000\000\000\000\000\000\000\000\244p=\n\327\243\340?\362\322Mb\020X\027@\232\231\231\231\231\371V@\343\245\233\304 \260\001@\000\000\000\000\000\000\024@\000\000\000\000\000\000x@fffff\3464@\037\205\353Q\270\272x@)\\\217\302\365\2502@Q\367\001Hm\002\023@\000\000\000\000\000\000\000\000\232\231\231\231\231\0312@\000\000\000\000\000\000\000\0007\211A`\345\320\346?\232\231\231\231\231\031\032@\000\000\000\000\000\240U@?\306\334\265\204|\003@\000\000\000\000\000\0008@\000\000\000\000\000\320\204@3333334@\366(\\\217\302uI@\341z\024\256G!2@4\277\232\003\004S\026@\000\000\000\000\000\000\000\000\232\231\231\231\231\0312@\000\000\000\000\000\000\000\0007\211A`\345\320\346?X9\264\310v\276\031@\232\231\231\231\231\371U@I\235\200&\302\206\002@\000\000\000\000\000\0008@\000\000\000\000\000\320\204@3333334@\\\217\302\365(\014Y@\270\036\205\353Q80@\"\303*\336\310<\357?\000\000\000\000\000\000\000\000\244p=\n\327\3435@\000\000\000\000\000\000\000\000+\207\026\331\316\367\343?\272I\014\002+\007\027@\232\231\231\231\231\231X@\370S\343\245\233\304\002@\000\000\000\000\000\000\020@\000\000\000\000\000P{@3333335@\\\217\302\365(lp@\217\302\365(\\O1@[\323\274\343\024\r6@\000\000\000\000\000\000\000\000\232\231\231\231\231\0312@\000\000\000\000\000\000\000\000\256G\341z\024\256\347?\022\203\300\312\241E\027@\232\231\231\231\231\031W@$\271\374\207\364\333\375?\000\000\000\000\000\0008@\000\000\000\000\000\320\204@3333334@33333wx@\\\217\302\365(\0346@0L\246\nF\325#@\000\000\000\000\000\000\000\000\232\231\231\231\231\0312@\000\000\000\000\000\000\000\000\223\030\004V\016-\346?\234\304 \260rh\027@33333sS@\304\261.n\243\001\370?\000\000\000\000\000\0008@\000\000\000\000\000\320\204@3333334@\303\365(\\\217\"u@\270\036\205\353Q\370=@\224j\237\216\307\014\330?\000\000\000\000\000\000\000\000\256G\341z\024.%@\000\000\000\000\000\000\360?\262\235\357\247\306K\337?\004V\016-\262\235\025@fffff&V@R\270\036\205\353Q\r@\000\000\000\000\000\000\020@\000\000\000\000\000Pq@\232\231\231\231\231\2312@\244p=\n\327\263x@{\024\256G\341\3727@S\256\360.\027\361\305?\000\000\000\000\000\000\000\000\244p=\n\327\243\033@\000\000\000\000\000\000\000\000y\351&1\010\254\334?\356|?5^\272\026@fffff\346@@\327\022\362A\317f\024@\000\000\000\000\000\000\010@\000\000\000\000\000 m@fffff\3461@fffff\316x@\354Q\270\036\205k$@\212\216\344\362\037R&@\000\000\000\000\000\000\000\000\232\231\231\231\231\0312@\000\000\000\000\000\000\000\000\256G\341z\024\256\347?j\274t\223\030\204\032@fffff\246W@V}\256\266b\377\000@\000\000\000\000\000\0008@\000\000\000\000\000\320\204@3333334@fffffv[@\205\353Q\270\036E7@<\203\206\376\t.\266?\000\000\000\000\000\200F@\205\353Q\270\036\205\013@\000\000\000\000\000\000\000\000+\207\026\331\316\367\333?\203\300\312\241E\266\034@\315\314\314\314\314L:@\263{\362\260P\353\031@\000\000\000\000\000\000\024@\000\000\000\000\000\340x@ffffff.@\244p=\n\327gx@\366(\\\217\302\365\006@\037\021S\"\211^\324?\000\000\000\000\000\000\000\000\315\314\314\314\314\314#@\000\000\000\000\000\000\000\000\234\304 \260rh\341?\016-\262\235\357\247\027@\315\314\314\314\314\314T@\351H.\377!\375\017@\000\000\000\000\000\000\020@\000\000\000\000\000\000s@ffffff2@33333kx@\024\256G\341zT2@\003[%X\034\316\371?\000\000\000\000\000\000\000\000H\341z\024\256G @\000\000\000\000\000\000\000\000\236\357\247\306K7\341?\374\251\361\322Mb\030@\232\231\231\231\2319X@\243\001\274\005\022\024\016@\000\000\000\000\000\000\020@\000\000\000\000\0000s@\000\000\000\000\000\0005@R\270\036\205\353\to@\327\243p=\nW4@}\263\315\215\351\t\313?\000\000\000\000\000\000)@{\024\256G\341z\037@\000\000\000\000\000\000\000\000\370S\343\245\233\304\340?\240\032/\335$\206\026@\000\000\000\000\000\000Y@\243\001\274\005\022T\030@\000\000\000\000\000\000\024@\000\000\000\000\000ps@ffffff.@\256G\341z\024*x@\256G\341z\024\356=@c\177\331=y\270/@\000\000\000\000\000\000\000\000\232\231\231\231\231\0312@\000\000\000\000\000\000\000\000\356|?5^\272\345?/\335$\006\201\225\027@\232\231\231\231\231\331W@\313\020\307\272\270\215\376?\000\000\000\000\000\0008@\000\000\000\000\000\320\204@3333334@\270\036\205\353Q\270\036@\244p=\n\327c8@333333\354?\000\000\000\000\000\000\000\000\244p=\n\327\3435@\000\000\000\000\000\000\000\000+\207\026\331\316\367\343??5^\272I\214\026@\315\314\314\314\314\254W@=\233U\237\253\255\377?\000\000\000\000\000\000\020@\000\000\000\000\000P{@3333335@fffff\316x@\327\243p=\nW2@_\2652\341\227\372\305?\000\000\000\000\000\0009@\205\353Q\270\036\205\024@\000\000\000\000\000\000\000\000\313\241E\266\363\375\334?w\276\237\032/\335\027@\232\231\231\231\231YW@\240\032/\335$F\033@\000\000\000\000\000\000 @\000\000\000\000\000\300q@33333\2633@\341z\024\256G\241w@\341z\024\256G\341,@\341\013\223\251\202\221\n@\000\000\000\000\000\000\000\000\024\256G\341z\2243@\000\000\000\000\000\000\360?\254\034Zd;\337\353?\351&1\010\254\234\025@\000\000\000\000\000\000Y@0L\246\nF%\365?\000\000\000\000\000\000\024@\000\000\000\000\0000y@ffffff-@fffff\316x@R\270\036\205\353\321:@\004\377[\311\216\215\300?\000\000\000\000\000\000\000\000\327\243p=\n\327+@\000\000\000\000\000\000\000\000+\207\026\331\316\367\333?\203\300\312\241E\266\032@\232\231\231\231\231\031?@HP\374\030s\327\027@\000\000\000\000\000\000\020@\000\000\000\000\000\020r@\000\000\000\000\000\0000@fffff\316x@\024\256G\341z\024\031@\262\235\357\247\306K\341?\000\000\000\000\000\0004@\303\365(\\\217\302\017@\000\000\000\000\000\000\000\000ffffff\342?\341z\024\256G\341\035@\315\314\314\314\314LJ@`\345\320\"\333\371\006@\000\000\000\000\000\000\024@\000\000\000\000\000\200p@\000\000\000\000\000\000*@\315\314\314\314\314dx@H\341z\024\256G\t@V\202\305\341\314\257\351?\000\000\000\000\000\000\000\000H\341z\024\256G @\000\000\000\000\000\000\000\000\236\357\247\306K7\341?m\347\373\251\361\322\025@\315\314\314\314\314LB@\254\034Zd;_\016@\000\000\000\000\000\000\020@\000\000\000\000\0000s@\000\000\000\000\000\0005@\244p=\n\327\017r@\341z\024\256Ga\'@Qf\203L2r\206?\000\000\000\000\000\200K@\000\000\000\000\000\000\002@\000\000\000\000\000\000\000\000L7\211A`\345\330?\035Zd;\337\317\031@fffff\346?@B>\350\331\254:\035@\000\000\000\000\000\000\360?\000\000\000\000\000\300r@\232\231\231\231\231\231.@\354Q\270\036\205\253x@\366(\\\217\302u @R\'\240\211\260\341\342?\000\000\000\000\000\000\000\000\244p=\n\327\3435@\000\000\000\000\000\000\000\000+\207\026\331\316\367\343?\260rh\221\355|\031@\232\231\231\231\231yX@\346\256%\344\203\236\002@\000\000\000\000\000\000\020@\000\000\000\000\000P{@3333335@\\\217\302\365(\034x@=\n\327\243p=&@\244\210\014\253x#\243?\000\000\000\000\000\000\000\000\303\365(\\\217\302\024@\000\000\000\000\000\000\000\000{\024\256G\341z\340?=\n\327\243p=\031@\000\000\000\000\000@C@\023\362A\317f\325\031@\000\000\000\000\000\000\024@\000\000\000\000\000\000l@3333334@fffffVx@\000\000\000\000\000\000\033@>\350\331\254\372|\027@\000\000\000\000\000\000\000\000\232\231\231\231\231\0312@\000\000\000\000\000\000\000\000\223\030\004V\016-\346?\037\205\353Q\270\236\031@\000\000\000\000\000\000X@\300\354\236<,\324\372?\000\000\000\000\000\0008@\000\000\000\000\000\320\204@3333334@fffff\316x@\037\205\353Q\270^3@\r\340-\220\240\370\241?\000\000\000\000\000\300W@q=\n\327\243p\005@\000\000\000\000\000\000\000\000\376e\367\344a\241\332?\266\363\375\324xi\037@\232\231\231\231\231\231@@F\266\363\375\324x\024@\000\000\000\000\000\000\020@\000\000\000\000\000\000l@ffffff-@\024\256G\341z\214x@{\024\256G\341z\016@P6\345\n\357\362\002@\000\000\000\000\000\000\000\000\024\256G\341z\2243@\000\000\000\000\000\000\000\000\254\034Zd;\337\353?Nb\020X9\264\023@\315\314\314\314\314\354W@\345\362\037\322o_\367?\000\000\000\000\000\000\024@\000\000\000\000\0000y@ffffff-@\217\302\365(\\{x@H\341z\024\256\207=@\335A\354L\2413\034@\000\000\000\000\000\000\000\000\232\231\231\231\231\0312@\000\000\000\000\000\000\000\000\331\316\367S\343\245\343?\266\363\375\324xi\030@fffffFU@\"lxz\245,\000@\000\000\000\000\000\0008@\000\000\000\000\000\320\204@3333334@)\\\217\302\365(\004@\n\327\243p=J7@\241\271N#-\325\026@\000\000\000\000\000\000\000\000\232\231\231\231\231\0312@\000\000\000\000\000\000\000\000\240\032/\335$\006\341?\000\000\000\000\000\000\033@\232\231\231\231\231\271R@e\252`TR\247\n@\000\000\000\000\000\0008@\000\000\000\000\000\320\204@3333334@\205\353Q\270\036\221x@\366(\\\217\302\365\036@Q\024\350\023y\222\224?\000\000\000\000\000\300W@q=\n\327\243p\005@\000\000\000\000\000\000\000\000\376e\367\344a\241\332?\305 \260rh\021 @fffff\346?@F\266\363\375\324x\024@\000\000\000\000\000\000\020@\000\000\000\000\000\000l@ffffff-@\315\314\314\314\314hx@\n\327\243p=\n\007@\257Z\231\360K\375\264?\000\000\000\000\000\000\000\000\327\243p=\n\327+@\000\000\000\000\000\000\000\000+\207\026\331\316\367\333?\360\247\306K7\t\030@fffff&E@\373\313\356\311\303\002\026@\000\000\000\000\000\000\020@\000\000\000\000\000\020r@\000\000\000\000\000\0000@fffff\316x@\315\314\314\314\314\314$@\004\342u\375\202\335\260?\000\000\000\000\000\000\000\000\256G\341z\024\256\003@\000\000\000\000\000\000\000\000\010\254\034Zd;\337?\217\302\365(\\\017\037@33333\323T@!\260rh\221\355\005@\000\000\000\000\000\000\010@\000\000\000\000\000 h@\315\314\314\314\314\3141@)\\\217\302\365\270x@=\n\327\243p=\036@\221,`\002\267\356\276?\000\000\000\000\000\000\000\000\037\205\353Q\270\036\007@\000\000\000\000\000\000\000\000{\024\256G\341z\334?\027\331\316\367S# @\000\000\000\000\000\000S@g\325\347j+\366\013@\000\000\000\000\000\000\000@\000\000\000\000\000@q@\000\000\000\000\000\0002@fffff\316x@\327\243p=\n\327\020@\201&\302\206\247W\272?\000\000\000\000\000\000>@\270\036\205\353Q\270\023@\000\000\000\000\000\000\000\0001\010\254\034Zd\333?;\337O\215\227n\031@33333sJ@1\010\254\034Z$\034@\000\000\000\000\000\000\030@\000\000\000\000\000\300r@\232\231\231\231\231\2310@\000\000\000\000\000Lw@q=\n\327\243p&@T\343\245\233\304 \240?\000\000\000\000\000\300W@\205\353Q\270\036\205\367?\000\000\000\000\000\000\000\000\230n\022\203\300\312\331?fffff\346\033@\232\231\231\231\231\231.@[\323\274\343\024\235\036@\000\000\000\000\000\000\010@\000\000\000\000\000 y@\000\000\000\000\000\0001@fffff\316x@=\n\327\243p=\022@\253\t\242\356\003\220\252?\000\000\000\000\000\000\000\000\366(\\\217\302\365\021@\000\000\000\000\000\000\000\000#\333\371~j\274\334?\217\302\365(\\\017\030@\315\314\314\314\314\214F@\241g\263\352s\265\021@\000\000\000\000\000\000\010@\000\000\000\000\000\340n@\000\000\000\000\000\2002@\244p=\n\327\277x@\270\036\205\353Q\270)@0\330\r\333\026e\226?\000\000\000\000\000\000N@q=\n\327\243p\007@\000\000\000\000\000\000\000\000D\213l\347\373\251\331?333333\033@\315\314\314\314\314\314#@p\316\210\322\336\340\030@\000\000\000\000\000\000\360?\000\000\000\000\000\220p@333333/@R\270\036\205\353\225x@\037\205\353Q\270\036\024@Tt$\227\377\220\236?\000\000\000\000\000\000\000\000q=\n\327\243p\001@\000\000\000\000\000\000\000\000\035Zd;\337O\335?\270\036\205\353Q\270\031@\232\231\231\231\231YM@\253>W[\261?\030@\000\000\000\000\000\000\010@\000\000\000\000\000\300k@33333\2632@R\270\036\205\353\241x@\327\243p=\n\327\024@6\310$#ga\257?\000\000\000\000\000\0004@\244p=\n\327\243\n@\000\000\000\000\000\000\360?c\177\331=yX\334?\024\256G\341z\224\036@\232\231\231\231\231\331H@\360\026HP\374\330\024@\000\000\000\000\000\000\024@\000\000\000\000\000\000k@\315\314\314\314\314\314-@\205\353Q\270\036\221w@\024\256G\341z\024\010@)\350\366\222\306h\342?\000\000\000\000\000\000\000\000\315\314\314\314\314\314\030@\000\000\000\000\000\000\000\000\323Mb\020X9\340?\006\201\225C\213\254 @33333SR@0\273\'\017\013\265\016@\000\000\000\000\000\000 @\000\000\000\000\0000s@ffffff1@\303\365(\\\217\036x@\303\365(\\\217\302\003@\347\251\016\271\031n\336?\000\000\000\000\000\000\000\000\315\314\314\314\314\314#@\000\000\000\000\000\000\000\000\234\304 \260rh\341?\301\312\241E\266s\030@ffffffM@\031s\327\022\362\001\020@\000\000\000\000\000\000\020@\000\000\000\000\000\000s@ffffff2@H\341z\024\256\303x@\366(\\\217\302u)@\000\343\0314\364O\300?\000\000\000\000\000\000\000\000\244p=\n\327\243\033@\000\000\000\000\000\000\000\000y\351&1\010\254\334?\024\256G\341z\024\033@333333\007@\340\276\016\2343\342\026@\000\000\000\000\000\000\010@\000\000\000\000\000 m@fffff\3461@\303\365(\\\217\026x@\\\217\302\365(\\\023@\376e\367\344a\221I@\000\000\000\000\000\000\000\000\232\231\231\231\231\0312@\000\000\000\000\000\000\000\000\264\310v\276\237\032\343?\272I\014\002+\007\027@\000\000\000\000\000\000Y@\317\367S\343\245\233\366?\000\000\000\000\000\0008@\000\000\000\000\000\320\204@3333334@\315\314\314\314\314\314\004@\270\036\205\353Q8$@\205|\320\263Y\365\301?\000\000\000\000\000\0006@q=\n\327\243p\027@\000\000\000\000\000\000\000\000/\335$\006\201\225\333?\246\233\304 \260\362\031@\000\000\000\000\000\000*@\365JY\2068\226\035@\000\000\000\000\000\000\034@\000\000\000\000\000\240t@\232\231\231\231\231\0313@\024\256G\341z\304x@\232\231\231\231\231\231\027@4\235\235\014\216\222\031@\000\000\000\000\000\000\000\000\232\231\231\231\231\0312@\000\000\000\000\000\000\000\000\343\245\233\304 \260\342?\331\316\367S\343\245\030@\232\231\231\231\231YX@\331\316\367S\343\245\001@\000\000\000\000\000\0008@\000\000\000\000\000\320\204@3333334@\\\217\302\365(\354r@\232\231\231\231\231\0318@b\326\213\241\234h\277?\000\000\000\000\000\000\000\000\244p=\n\327\243\033@\000\000\000\000\000\000\000\000y\351&1\010\254\334?-\262\235\357\247F\030@\000\000\000\000\000\000D@\340\276\016\2343\342\026@\000\000\000\000\000\000\010@\000\000\000\000\000 m@fffff\3461@\n\327\243p=Vx@\232\231\231\231\231\031#@\332\003\255\300\220\225!@\000\000\000\000\000\000\000\000\232\231\231\231\231\0312@\000\000\000\000\000\000\000\000\343\245\233\304 \260\342?\303\365(\\\217B\026@fffff\246Q@5^\272I\014\202\000@\000\000\000\000\000\0008@\000\000\000\000\000\320\204@3333334@333333\r@)\\\217\302\365(1@\206\346:\215\264T\306?\000\000\000\000\000\000\000\000\256G\341z\024.%@\000\000\000\000\000\000\360?\262\235\357\247\306K\337?\327\243p=\n\327\027@fffff\006W@\243\222:\001M\004\017@\000\000\000\000\000\000\020@\000\000\000\000\000Pq@\232\231\231\231\231\2312@\000\000\000\000\000\224x@\205\353Q\270\036E1@\217\245\017]P\337\320?\000\000\000\000\000\000\000\000\037\205\353Q\270\036!@\000\000\000\000\000\000\000\000\244p=\n\327\243\340?\321\"\333\371~\352\030@\315\314\314\314\314\314V@\225e\210c]\\\004@\000\000\000\000\000\000\024@\000\000\000\000\000\000x@fffff\3464@H\341z\024\256sx@\232\231\231\231\231\031/@M\370\245~\336\024\000@\000\000\000\000\000\000\000\000\024\256G\341z\2243@\000\000\000\000\000\000\000\000\\\217\302\365(\\\343?\236\357\247\306K\267\037@\315\314\314\314\314\014X@Y\027\267\321\000^\000@\000\000\000\000\000\000\024@\000\000\000\000\0000y@ffffff-@\315\314\314\314\314\024w@\232\231\231\231\231\231\r@\215\356 v\246\320\271?\000\000\000\000\000\000\000\000\205\353Q\270\036\005$@\000\000\000\000\000\000\000\000\033/\335$\006\201\341?\\\217\302\365(\334\032@ffffffT@\354Q\270\036\205k\005@\000\000\000\000\000\000\030@\000\000\000\000\000\000{@\315\314\314\314\314\3141@=\n\327\243p\271x@R\270\036\205\353Q$@\177\373:p\316\210\322?\000\000\000\000\000\000\000\000\341z\024\256Ga#@\000\000\000\000\000\000\000\000\270\036\205\353Q\270\342?\217\302\365(\\\217\025@\232\231\231\231\2319R@O\257\224e\210c\006@\000\000\000\000\000\000\030@\000\000\000\000\000px@3333333@fffff\316x@\244p=\n\327#5@\354/\273\'\017\013\225?\000\000\000\000\000@U@\256G\341z\024\256\347?\000\000\000\000\000\000\000\000=\n\327\243p=\332?\325x\351&1\210\031@\232\231\231\231\231\331A@\216uq\033\r`\"@\000\000\000\000\000\000\000@\000\000\000\000\000\220s@\315\314\314\314\314L1@fffff\316x@\024\256G\341z\024\027@\314\356\311\303B\255\261?\000\000\000\000\000\000\000\000q=\n\327\243p\001@\000\000\000\000\000\000\000\000\035Zd;\337O\335?J\014\002+\207\226\034@\232\231\231\231\231\031K@\253>W[\261?\030@\000\000\000\000\000\000\010@\000\000\000\000\000\300k@33333\2632@fffff\316x@R\270\036\205\353Q\025@\327\335<\325!\027\034@\000\000\000\000\000\000\000\000\232\231\231\231\231\0312@\000\000\000\000\000\000\000\000`\345\320\"\333\371\346?\240\032/\335$\006\030@33333\323W@<N\321\221\\\376\375?\000\000\000\000\000\0008@\000\000\000\000\000\320\204@3333334@H\341z\024\256\377s@ffffff/@\371\203\201\347\336\303\305?\000\000\000\000\000\000)@{\024\256G\341z\037@\000\000\000\000\000\000\000\000\370S\343\245\233\304\340?j\274t\223\030\004\030@\232\231\231\231\231yU@\256\330_vO^\032@\000\000\000\000\000\000\024@\000\000\000\000\000ps@ffffff.@\217\302\365(\\+x@\232\231\231\231\231\0311@\346\221?\030x\356\305?\000\000\000\000\000\000\000\000\205\353Q\270\036\005$@\000\000\000\000\000\000\000\000\033/\335$\006\201\341?\203\300\312\241E\266\027@\315\314\314\314\314\014V@\2068\326\305m\264\003@\000\000\000\000\000\000\030@\000\000\000\000\000\000{@\315\314\314\314\314\3141@\303\365(\\\217\216u@\205\353Q\270\036\205/@\323\244\024t{I\273?\000\000\000\000\000\000T@\217\302\365(\\\217\376?\000\000\000\000\000\000\000\000;\337O\215\227n\332?X9\264\310v\276\027@\000\000\000\000\000\2003@\316\210\322\336\340+%@\000\000\000\000\000\000\020@\000\000\000\000\000\340t@\000\000\000\000\000\0006@q=\n\327\243\200w@H\341z\024\256G\026@-\262\235\357\247\306\253?\000\000\000\000\000\000\000\000333333\020@\000\000\000\000\000\000\000\000R\270\036\205\353Q\340?\303\365(\\\217B\031@\232\231\231\231\231YR@\n\327\243p=\212\n@\000\000\000\000\000\000\024@\000\000\000\000\000\200r@\232\231\231\231\231\2310@\232\231\231\231\231\271x@)\\\217\302\365(\031@D\372\355\353\3009\347?\000\000\000\000\000\000\000\000H\341z\024\256G @\000\000\000\000\000\000\000\000\236\357\247\306K7\341?\234\304 \260r\350\026@\000\000\000\000\000`Q@\254\034Zd;_\016@\000\000\000\000\000\000\020@\000\000\000\000\0000s@\000\000\000\000\000\0005@33333ox@\217\302\365(\\\217&@\320\263Y\365\271Z.@\000\000\000\000\000\000\000\000\232\231\231\231\231\0312@\000\000\000\000\000\000\000\000\256G\341z\024\256\347?\317\367S\343\245\233\030@\000\000\000\000\000\000Y@\033\r\340-\220\240\376?\000\000\000\000\000\0008@\000\000\000\000\000\320\204@3333334@\244p=\n\327\243\"@33333s:@\035\217\031\250\214\177\217?\000\000\000\000\000\200V@\000\000\000\000\000\000\016@\000\000\000\000\000\000\000\000\236\357\247\306K7\331?7\211A`\345\320\035@\232\231\231\231\231\031A@\016\2760\231*X\031@\000\000\000\000\000\000\010@\000\000\000\000\000\200n@\315\314\314\314\314\314/@=\n\327\243p%x@\341z\024\256G\341\010@\274\226\220\017z>V@\000\000\000\000\000\000\000\000\232\231\231\231\231\0312@\000\000\000\000\000\000\000\000F\266\363\375\324x\345?\254\034Zd;\337\033@\232\231\231\231\231\371V@D\213l\347\373\251\366?\000\000\000\000\000\0008@\000\000\000\000\000\320\204@3333334@fffff\316x@\366(\\\217\30251@\367\314\222\00055\366?\000\000\000\000\000\000\000\000H\341z\024\256G @\000\000\000\000\000\000\000\000\236\357\247\306K7\341?\315\314\314\314\314\314\027@\000\000\000\000\000\200T@\354Q\270\036\205\353\017@\000\000\000\000\000\000\020@\000\000\000\000\0000s@\000\000\000\000\000\0005@33333\023m@\366(\\\217\302\265;@Gw\020;S\350\254?\000\000\000\000\000\000\000\000)\\\217\302\365\250)@\000\000\000\000\000\000\000\000+\207\026\331\316\367\333?!\260rh\221\355\030@\232\231\231\231\231\331J@\221~\373:p\016\024@\000\000\000\000\000\000\024@\000\000\000\000\000\340x@33333\2632@fffff&x@\256G\341z\024\256(@I\272f\362\3156\267?\000\000\000\000\000\200F@\205\353Q\270\036\205\013@\000\000\000\000\000\000\000\000+\207\026\331\316\367\333?\347\373\251\361\322\315\033@\000\000\000\000\000\2005@\263{\362\260P\353\031@\000\000\000\000\000\000\024@\000\000\000\000\000\340x@ffffff.@{\024\256G\341\232w@ffffff\024@M\363\216St$\351?\000\000\000\000\000\0004@\303\365(\\\217\302\017@\000\000\000\000\000\000\000\000Nb\020X9\264\344?u\223\030\004V\016\034@fffff&U@q\033\r\340-\020\001@\000\000\000\000\000\000\024@\000\000\000\000\000\200p@\000\000\000\000\000\000*@\205\353Q\270\036\001x@\024\256G\341z\224-@\260U\202\305\341\314\257?\000\000\000\000\000\000D@\000\000\000\000\000\000\364?\000\000\000\000\000\000\000\000\333\371~j\274t\333?\366(\\\217\302\365\031@333333F@\275R\226!\216\225!@\000\000\000\000\000\000\360?\000\000\000\000\000\360t@33333\2633@fffff\316x@\354Q\270\036\205\353\027@\225\361\3573.\034\310?\000\000\000\000\000\000\000\000\244p=\n\327\243\033@\000\000\000\000\000\000\000\000y\351&1\010\254\334?\276\237\032/\335$\027@fffff\246@@\327\022\362A\317f\024@\000\000\000\000\000\000\010@\000\000\000\000\000 m@fffff\3461@fffff\316x@\315\314\314\314\314L,@Hm\342\344~\207\302?\000\000\000\000\000\000\000\000\205\353Q\270\036\005$@\000\000\000\000\000\000\000\000\033/\335$\006\201\341?\006\201\225C\213\354\026@\315\314\314\314\314LP@P\374\030s\327\022\006@\000\000\000\000\000\000\030@\000\000\000\000\000\000{@\315\314\314\314\314\3141@\000\000\000\000\000xx@\270\036\205\353Q8+@S\313\326\372\"\241\335?\000\000\000\000\000\000\000\000\315\314\314\314\314\314\030@\000\000\000\000\000\000\000\000T\343\245\233\304 \340?\331\316\367S\343\245\035@\232\231\231\231\2319S@\254\034Zd;_\r@\000\000\000\000\000\000 @\000\000\000\000\0000s@ffffff1@\n\327\243p=\202w@\000\000\000\000\000\000\025@)\\\217\302\365(\264?\000\000\000\000\000\200F@\205\353Q\270\036\205\013@\000\000\000\000\000\000\000\000+\207\026\331\316\367\333?T\343\245\233\304 \033@\315\314\314\314\314\214D@;\001M\204\rO\016@\000\000\000\000\000\000\024@\000\000\000\000\000\340x@ffffff.@R\270\036\205\353\235x@\270\036\205\353Q\270\032@)\320\'\362$\351\306?\000\000\000\000\000\000\000\000\341z\024\256Ga#@\000\000\000\000\000\000\000\000\270\036\205\353Q\270\342?\256G\341z\024\256\026@\315\314\314\314\314\314<@O\257\224e\210c\006@\000\000\000\000\000\000\030@\000\000\000\000\000px@3333333@q=\n\327\243\224x@\232\231\231\231\231\2311@\202\250\373\000\2446\271?\000\000\000\000\000\000\000\000fffff\2469@\000\000\000\000\000\000\000\000d;\337O\215\227\342?j\274t\223\030\204\027@33333\363W@\351\267\257\003\347\014\000@\000\000\000\000\000\000\000@\000\000\000\000\000\200g@\232\231\231\231\231\0313@\256G\341z\024\266w@\024\256G\341z\2241@\253>W[\261\277/@\000\000\000\000\000\000\000\000\232\231\231\231\231\0312@\000\000\000\000\000\000\000\000F\266\363\375\324x\345?\256G\341z\024.\032@fffff\306X@\312T\301\250\244N\370?\000\000\000\000\000\0008@\000\000\000\000\000\320\204@3333334@fffff\316x@\024\256G\341z\0245@RD\206U\274\221\343?\000\000\000\000\000\0004@\303\365(\\\217\302\017@\000\000\000\000\000\000\000\000Nb\020X9\264\344?\234\304 \260rh!@\232\231\231\231\231\271U@7\211A`\345\320\374?\000\000\000\000\000\000\024@\000\000\000\000\000\200p@\000\000\000\000\000\000*@33333[x@{\024\256G\341z\024@\215\264T\336\216p\272?\000\000\000\000\000\0009@\205\353Q\270\036\205\024@\000\000\000\000\000\000\000\000\313\241E\266\363\375\334?h\221\355|?\265\027@\232\231\231\231\231\231G@\356|?5^\272\033@\000\000\000\000\000\000 @\000\000\000\000\000\300q@33333\2633@fffff\316x@q=\n\327\243p\"@\t\212\037c\356\372P@\000\000\000\000\000\000\000\000\232\231\231\231\231\0312@\000\000\000\000\000\000\000\000\223\030\004V\016-\346?\010\254\034Zd\273\026@\000\000\000\000\000\000Y@\221~\373:p\316\366?\000\000\000\000\000\0008@\000\000\000\000\000\320\204@3333334@\354Q\270\036\205\017x@{\024\256G\341\3726@\217\337\333\364g?\320?\000\000\000\000\000\000\000\000\244p=\n\327\243\033@\000\000\000\000\000\000\000\000y\351&1\010\254\334?\177j\274t\223\230\025@33333\323W@{\024\256G\341z\027@\000\000\000\000\000\000\010@\000\000\000\000\000 m@fffff\3461@fffff\316x@\217\302\365(\\\317>@\027\361\235\230\365b\300?\000\000\000\000\000\000\000\000\037\205\353Q\270\036!@\000\000\000\000\000\000\000\000\244p=\n\327\243\340?L7\211A`\345\031@fffffFX@\330\201sF\224v\003@\000\000\000\000\000\000\024@\000\000\000\000\000\000x@fffff\3464@\244p=\n\327\263x@\n\327\243p=\212(@\265\211\223\373\035J!@\000\000\000\000\000\000\000\000\232\231\231\231\231\0312@\000\000\000\000\000\000\000\000\223\030\004V\016-\346?\022\203\300\312\241\305\030@fffff&W@\360\205\311T\301\250\374?\000\000\000\000\000\0008@\000\000\000\000\000\320\204@3333334@fffff\316x@\327\243p=\nW.@\237q\341@H\026\363?\000\000\000\000\000\000\000\000\244p=\n\327\3435@\000\000\000\000\000\000\000\000+\207\026\331\316\367\343?\347\373\251\361\322M\031@\315\314\314\314\314lX@^\272I\014\002+\002@\000\000\000\000\000\000\020@\000\000\000\000\000P{@3333335@fffff\316x@\205\353Q\270\036\205(@\353V\317I\357\033\257?\000\000\000\000\000\000\000\000\\\217\302\365(\334\'@\000\000\000\000\000\000\000\000\274t\223\030\004V\342?\201\225C\213l\347\033@\000\000\000\000\000\300V@\327\243p=\nW\001@\000\000\000\000\000\000\360?\000\000\000\000\000\020q@\000\000\000\000\000\0005@fffff\316x@\217\302\365(\\\217\026@_\014\345D\273\n\305?\000\000\000\000\000\0006@q=\n\327\243p\027@\000\000\000\000\000\000\000\000/\335$\006\201\225\333?\010\254\034Zd\273\031@\315\314\314\314\314\214H@u\223\030\004VN\037@\000\000\000\000\000\000\034@\000\000\000\000\000\240t@\232\231\231\231\231\0313@\217\302\365(\\kw@\n\327\243p=\n#@\376\324x\351&1\300?\000\000\000\000\000\0009@\205\353Q\270\036\205\024@\000\000\000\000\000\000\000\000\313\241E\266\363\375\334??5^\272I\014\033@33333\263E@\352\225\262\014q\354\037@\000\000\000\000\000\000 @\000\000\000\000\000\300q@33333\2633@\341z\024\256G\271x@\000\000\000\000\000\000#@\367\257\2544)e\021@\000\000\000\000\000\000\000\000\232\231\231\231\231\0312@\000\000\000\000\000\000\000\000\217\302\365(\\\217\342?^\272I\014\002\253\030@\000\000\000\000\000\000U@\277}\0358gD\010@\000\000\000\000\000\0008@\000\000\000\000\000\320\204@3333334@fffff\316x@\n\327\243p=J0@}\320\263Y\365\031,@\000\000\000\000\000\000\000\000\232\231\231\231\231\0312@\000\000\000\000\000\000\000\000\264\310v\276\237\032\343?T\343\245\233\304\240\032@\000\000\000\000\000\000Y@q=\n\327\243p\370?\000\000\000\000\000\0008@\000\000\000\000\000\320\204@3333334@fffff\206A@\270\036\205\353Q85@;\215\264T\336\216\310?\000\000\000\000\000\000\000\000\205\353Q\270\036\205\035@\000\000\000\000\000\000\000\000Zd;\337O\215\337?\323Mb\020X\271\031@ffffff-@\'\240\211\260\341\251\025@\000\000\000\000\000\000\024@\000\000\000\000\000\360q@\232\231\231\231\231\2313@{\024\256G\341\232x@R\270\036\205\353Q\024@\237v\370k\262f @\000\000\000\000\000\000\000\000\232\231\231\231\231\0312@\000\000\000\000\000\000\000\0007\211A`\345\320\346?X9\264\310v\276\027@33333\023T@yX\2505\315;\006@\000\000\000\000\000\0008@\000\000\000\000\000\320\204@3333334@\000\000\000\000\000\000\014@q=\n\327\243\3600@\253\347\244\367\215\257\235?\000\000\000\000\000\000D@\000\000\000\000\000\000\364?\000\000\000\000\000\000\000\000\333\371~j\274t\333?\250\306K7\211\301\033@\000\000\000\000\000@A@\275R\226!\216\225!@\000\000\000\000\000\000\360?\000\000\000\000\000\360t@33333\2633@\232\231\231\231\231]x@\217\302\365(\\\217\027@\336Y\273\355Bs\275?\000\000\000\000\000\000\000\000\037\205\353Q\270\036\007@\000\000\000\000\000\000\000\000{\024\256G\341z\334?\364\375\324x\351\246\030@ffffffQ@g\325\347j+\366\013@\000\000\000\000\000\000\000@\000\000\000\000\000@q@\000\000\000\000\000\0002@\341z\024\256G}x@\256G\341z\024\256&@g\270\001\237\037F\250?\000\000\000\000\000\000\000\000\\\217\302\365(\334\'@\000\000\000\000\000\000\000\000\274t\223\030\004V\342?\037\205\353Q\270\036\030@333333T@\n\327\243p=\n\004@\000\000\000\000\000\000\360?\000\000\000\000\000\020q@\000\000\000\000\000\0005@fffff\316x@\205\353Q\270\036\205\037@\331\231B\3475v\301?\000\000\000\000\000\000\000\000\256G\341z\024.%@\000\000\000\000\000\000\000\000\262\235\357\247\306K\337?\252\361\322Mb\220\027@\315\314\314\314\314L6@q\033\r\340-\220\017@\000\000\000\000\000\000\020@\000\000\000\000\000Pq@\232\231\231\231\231\2312@fffff\316x@=\n\327\243p\275%@\215\234\205=\355\360\367?\000\000\000\000\000\000\000\000\024\256G\341z\2243@\000\000\000\000\000\000\000\000\254\034Zd;\337\353?\004V\016-\262\235\025@\000\000\000\000\000\000Y@\201\004\305\2171w\371?\000\000\000\000\000\000\024@\000\000\000\000\0000y@ffffff-@\232\231\231\231\231Yu@\217\302\365(\\\217*@\210\205Z\323\274\303D@\000\000\000\000\000\000\000\000\232\231\231\231\231\0312@\000\000\000\000\000\000\000\000\223\030\004V\016-\346?9\264\310v\276\037\026@\232\231\231\231\231YU@Gr\371\017\351\267\371?\000\000\000\000\000\0008@\000\000\000\000\000\320\204@3333334@\217\302\365(\\\227t@\341z\024\256Ga;@{\332\341\257\311\032\265?\000\000\000\000\000\000>@\270\036\205\353Q\270\023@\000\000\000\000\000\000\000\0001\010\254\034Zd\333?\006\201\225C\213\354\031@\000\000\000\000\000\2002@\246\nF%u\302\030@\000\000\000\000\000\000\030@\000\000\000\000\000\300r@\232\231\231\231\231\2310@\303\365(\\\217\266w@q=\n\327\243p\031@A\361c\314]\013+@\000\000\000\000\000\000\000\000\232\231\231\231\231\0312@\000\000\000\000\000\000\000\000\376\324x\351&1\344?\201\225C\213l\347\016@\000\000\000\000\000\000Y@\317f\325\347j+\370?\000\000\000\000\000\0008@\000\000\000\000\000\320\204@3333334@=\n\327\243pm`@)\\\217\302\365\250*@\260U\202\305\341\314\313?\000\000\000\000\000\000\000\000\256G\341z\024.%@\000\000\000\000\000\000\360?\262\235\357\247\306K\337?\356|?5^:\027@fffff\346J@\361\364JY\2068\r@\000\000\000\000\000\000\020@\000\000\000\000\000Pq@\232\231\231\231\231\2312@\327\243p=\nox@H\341z\024\256\0070@\323\366\257\2544)\311?\000\000\000\000\000\0006@q=\n\327\243p\027@\000\000\000\000\000\000\000\000/\335$\006\201\225\333?\201\225C\213l\347\030@\315\314\314\314\314\314S@#\333\371~j\034 @\000\000\000\000\000\000\034@\000\000\000\000\000\240t@\232\231\231\231\231\0313@\n\327\243p=\202w@\315\314\314\314\314L$@B>\350\331\254\372\254?\000\000\000\000\000\000\000\000H\341z\024\256G\013@\000\000\000\000\000\000\000\000\262\235\357\247\306K\337?\272I\014\002+\007\034@33333\223U@\035\311\345?\244_\013@\000\000\000\000\000\000\000@\000\000\000\000\000\340p@\315\314\314\314\314\3141@fffff\316x@\000\000\000\000\000\000\026@?RD\206U\274\350?\000\000\000\000\000\000\000\000H\341z\024\256G @\000\000\000\000\000\000\000\000\236\357\247\306K7\341?{\024\256G\341\372\031@\232\231\231\231\231\231W@\375\366u\340\234\321\021@\000\000\000\000\000\000\020@\000\000\000\000\0000s@\000\000\000\000\000\0005@\327\243p=\n?x@\232\231\231\231\231\231)@-x\321W\220f\314?\000\000\000\000\000\0004@\327\243p=\n\327\033@\000\000\000\000\000\000\360?\031\004V\016-\262\335?\335$\006\201\225\303\036@fffff\346I@\236\357\247\306Kw\021@\000\000\000\000\000\000\010@\000\000\000\000\000\340k@\232\231\231\231\231\2312@\270\036\205\353Qlx@R\270\036\205\353Q\032@\022\245\275\301\027&\223?\000\000\000\000\000@U@\232\231\231\231\231\231\020@\000\000\000\000\000\000\000\000\333\371~j\274t\333?\252\361\322Mb\020\032@33333\263;@\374\030s\327\022\022!@\000\000\000\000\000\000\020@\000\000\000\000\000\360u@fffff\3461@{\024\256G\341\206x@q=\n\327\243p\031@\202sF\224\366\346\'@\000\000\000\000\000\000\000\000\232\231\231\231\231\0312@\000\000\000\000\000\000\000\000J\014\002+\207\026\345?;\337O\215\227n\026@\000\000\000\000\000\000Y@q\033\r\340-\220\364?\000\000\000\000\000\0008@\000\000\000\000\000\320\204@3333334@=\n\327\243p\301t@\303\365(\\\217B(@\223\214\234\205=\355\240?\000\000\000\000\000\000\000\000\303\365(\\\217\302\024@\000\000\000\000\000\000\000\000{\024\256G\341z\340?#\333\371~j<\030@fffff\246B@\253>W[\261?\023@\000\000\000\000\000\000\024@\000\000\000\000\000\000l@3333334@\n\327\243p=\302x@\205\353Q\270\036\005!@1\261\371\2706T\300?\000\000\000\000\000\000>@\270\036\205\353Q\270\023@\000\000\000\000\000\000\000\0001\010\254\034Zd\333?\337O\215\227n\222\031@333333\037@1\010\254\034Z$\034@\000\000\000\000\000\000\030@\000\000\000\000\000\300r@\232\231\231\231\231\2310@\217\302\365(\\kw@\303\365(\\\217\302\024@\220\332\304\311\375\016\245?\000\000\000\000\000\0009@q=\n\327\243p\023@\000\000\000\000\000\000\000\000\335$\006\201\225C\333?\234\304 \260r\350\032@\000\000\000\000\000\300@@_\007\316\031Q\232\025@\000\000\000\000\000\000\020@\000\000\000\000\000\220q@\000\000\000\000\000\0003@fffff\316x@)\\\217\302\365(\025@\304\010\341\321\306\021\273?\000\000\000\000\000\000\000\000=\n\327\243p\275;@\000\000\000\000\000\000\000\000\260rh\221\355|\343?;\337O\215\227\356\027@33333\263X@\210\205Z\323\274\343\375?\000\000\000\000\000\000\020@\000\000\000\000\0008\206@\232\231\231\231\231\0314@\366(\\\217\302ax@R\270\036\205\353\0212@\341@H\0260\201\253?\000\000\000\000\000\000\000\000\327\243p=\n\327+@\000\000\000\000\000\000\000\000+\207\026\331\316\367\333?\031\004V\016-2\032@\000\000\000\000\000\200I@HP\374\030s\327\027@\000\000\000\000\000\000\020@\000\000\000\000\000\020r@\000\000\000\000\000\0000@\232\231\231\231\231\215x@\217\302\365(\\\217\035@\002Hm\342\344~\267?\000\000\000\000\000\000\000\000333333\020@\000\000\000\000\000\000\000\000R\270\036\205\353Q\340?D\213l\347\373\251\031@fffff\006U@\010=\233U\237+\005@\000\000\000\000\000\000\024@\000\000\000\000\000\200r@\232\231\231\231\231\2310@\000\000\000\000\000\270x@\024\256G\341z\024\"@H\376`\340\271W\023@\000\000\000\000\000\000\000\000\232\231\231\231\231\0312@\000\000\000\000\000\000\000\000\016-\262\235\357\247\342?\037\205\353Q\270\236\027@\232\231\231\231\231\231J@Gr\371\017\3517\t@\000\000\000\000\000\0008@\000\000\000\000\000\320\204@3333334@\354Q\270\036\205Cx@fffff\346&@\241J\315\036h\005\246?\000\000\000\000\000\000T@\217\302\365(\\\217\376?\000\000\000\000\000\000\000\000;\337O\215\227n\332?\364\375\324x\351\246\026@fffff\3465@\316\210\322\336\340+%@\000\000\000\000\000\000\020@\000\000\000\000\000\340t@\000\000\000\000\000\0006@\315\314\314\314\314\354w@\232\231\231\231\231\031 @R\325\004Q\367\001\270?\000\000\000\000\000\000)@{\024\256G\341z\037@\000\000\000\000\000\000\000\000\370S\343\245\233\304\340?u\223\030\004V\216\027@\000\000\000\000\000\200C@\313\020\307\272\270\315\025@\000\000\000\000\000\000\024@\000\000\000\000\000ps@ffffff.@\000\000\000\000\000hx@\354Q\270\036\205k/@[\224\331 \223\214\326?\000\000\000\000\000\000\000\000\244p=\n\327\3435@\000\000\000\000\000\000\000\000+\207\026\331\316\367\343?7\211A`\345\320\031@\232\231\231\231\231\231X@\270@\202\342\307\230\375?\000\000\000\000\000\000\020@\000\000\000\000\000P{@3333335@\341z\024\256G\241x@\256G\341z\024.-@\344\024\035\311\345\237\'@\000\000\000\000\000\000\000\000\232\231\231\231\231\0312@\000\000\000\000\000\000\000\000`\345\320\"\333\371\346?\262\235\357\247\306K\033@\000\000\000\000\000 S@Nb\020X9\264\374?\000\000\000\000\000\0008@\000\000\000\000\000\320\204@3333334@\232\231\231\231\2319H@=\n\327\243p\2756@\351&1\010\254\034\302?\000\000\000\000\000\000\000\000\244p=\n\327\243\033@\000\000\000\000\000\000\000\000y\351&1\010\254\334?\223\030\004V\016\255\030@ffffff\032@\340\276\016\2343\342\026@\000\000\000\000\000\000\010@\000\000\000\000\000 m@fffff\3461@R\270\036\205\353\365w@=\n\327\243p=\027@b\204\360h\343\010\003@\000\000\000\000\000\000\000\000\024\256G\341z\2243@\000\000\000\000\000\000\000\000\254\034Zd;\337\353?\205\353Q\270\036\205\030@\000\000\000\000\000\000Y@\277\016\2343\242\264\366?\000\000\000\000\000\000\024@\000\000\000\000\0000y@ffffff-@\205\353Q\270\036\235e@\315\314\314\314\314\314;@\n\334\272\233\247:\274?\000\000\000\000\000\0009@\205\353Q\270\036\205\024@\000\000\000\000\000\000\000\000\313\241E\266\363\375\334?m\347\373\251\361\322\031@33333\363P@\364\375\324x\351\346\034@\000\000\000\000\000\000 @\000\000\000\000\000\300q@33333\2633@fffff\316x@\354Q\270\036\205\353\032@_$\264\345\\\252\026@\000\000\000\000\000\000\000\000\232\231\231\231\231\0312@\000\000\000\000\000\000\000\000\256G\341z\024\256\347?\307K7\211A\340\030@\000\000\000\000\000\000Y@\231*\030\225\324\t\000@\000\000\000\000\000\0008@\000\000\000\000\000\320\204@3333334@\327\243p=\n\273x@\327\243p=\n\2270@\367\344a\241\3264\267?\000\000\000\000\000\0004@\327\243p=\n\327\033@\000\000\000\000\000\000\360?\031\004V\016-\262\335?\256G\341z\024\256\027@\000\000\000\000\000\300N@\327\243p=\nW\017@\000\000\000\000\000\000\010@\000\000\000\000\000\340k@\232\231\231\231\231\2312@=\n\327\243pux@\315\314\314\314\314L+@\025\221a\025od\332?\000\000\000\000\000\000\000\000\315\314\314\314\314\314\030@\000\000\000\000\000\000\000\000T\343\245\233\304 \340?\364\375\324x\351\246\034@\232\231\231\231\231\371S@D\372\355\353\300\271\t@\000\000\000\000\000\000 @\000\000\000\000\0000s@ffffff1@\341z\024\256GAw@q=\n\327\243p\031@p\231\323e1\261\261?\000\000\000\000\000\200F@\205\353Q\270\036\205\013@\000\000\000\000\000\000\000\000+\207\026\331\316\367\333?\333\371~j\274\364\032@\315\314\314\314\314\314>@\263{\362\260P\353\031@\000\000\000\000\000\000\024@\000\000\000\000\000\340x@ffffff.@\217\302\365(\\[x@\303\365(\\\217\302\022@\270\222\035\033\201x\265?\000\000\000\000\000\000\000\000)\\\217\302\365\250)@\000\000\000\000\000\000\000\000+\207\026\331\316\367\333?\345\320\"\333\371~\027@\315\314\314\314\314LB@\337\340\013\223\251\002\022@\000\000\000\000\000\000\024@\000\000\000\000\000\340x@33333\2632@)\\\217\302\365\300x@333333\"@/n\243\001\274\0254@\000\000\000\000\000\000\000\000\232\231\231\231\231\0312@\000\000\000\000\000\000\000\000ffffff\346?F\266\363\375\324x\021@\315\314\314\314\314\314V@\325x\351&1\010\367?\000\000\000\000\000\0008@\000\000\000\000\000\320\204@3333334@\341z\024\256G\335q@\341z\024\256G\241>@l\317,\tPS\303?\000\000\000\000\000\000\000\000\205\353Q\270\036\005$@\000\000\000\000\000\000\000\000\033/\335$\006\201\341?/\335$\006\201\025\030@fffff\246T@B>\350\331\254\372\005@\000\000\000\000\000\000\030@\000\000\000\000\000\000{@\315\314\314\314\314\3141@\\\217\302\365(\250x@\232\231\231\231\231\231$@\344,\354i\207\277\320?\000\000\000\000\000\000\000\000\315\314\314\314\314\314#@\000\000\000\000\000\000\000\000\234\304 \260rh\341?d;\337O\215\027\030@\232\231\231\231\231\231V@y\351&1\010\254\006@\000\000\000\000\000\000\020@\000\000\000\000\000\000s@ffffff2@\315\314\314\314\314\304x@q=\n\327\243p\'@{\240\025\030\262\272\331?\000\000\000\000\000\000\000\000\315\314\314\314\314\314#@\000\000\000\000\000\000\000\000\234\304 \260rh\341?\272I\014\002+\207\031@\315\314\314\314\314\314P@\303\365(\\\217B\014@\000\000\000\000\000\000\020@\000\000\000\000\000\000s@ffffff2@\217\302\365(\\\263x@\270\036\205\353Q\270$@sh\221\355|?\275?\000\000\000\000\000\000\000\000H\341z\024\256\307+@\000\000\000\000\000\000\360?\232\231\231\231\231\231\341?\313\241E\266\363}\031@\232\231\231\231\231\031W@+\030\225\324\t\350\n@\000\000\000\000\000\000\024@\000\000\000\000\000@q@ffffff0@\244p=\n\327\233x@\000\000\000\000\000\000%@\366\356\217\367\252\225\356?\000\000\000\000\000\000\000\000H\341z\024\256G @\000\000\000\000\000\000\000\000\236\357\247\306K7\341?\343\245\233\304 0\030@333333V@\216\006\360\026H\320\021@\000\000\000\000\000\000\020@\000\000\000\000\0000s@\000\000\000\000\000\0005@\256G\341z\024&s@H\341z\024\256G1@\024\355*\244\374\244\340?\000\000\000\000\000\0004@\303\365(\\\217\302\017@\000\000\000\000\000\000\000\000Nb\020X9\264\344?\262\235\357\247\306\313 @\000\000\000\000\000\340V@\002+\207\026\331N\002@\000\000\000\000\000\000\024@\000\000\000\000\000\200p@\000\000\000\000\000\000*@\366(\\\217\302-x@\244p=\n\327\243\027@\035=~o\323\237\265?\000\000\000\000\000\000\000\000333333\020@\000\000\000\000\000\000\000\000R\270\036\205\353Q\340?V\016-\262\235o\027@\315\314\314\314\314,Q@\314\177H\277}\235\005@\000\000\000\000\000\000\024@\000\000\000\000\000\200r@\232\231\231\231\231\2310@H\341z\024\256\223x@H\341z\024\256G#@\205\0108\204*5\263?\000\000\000\000\000\200@@q=\n\327\243p\001@\000\000\000\000\000\000\000\000h\221\355|?5\336?\256G\341z\024\256\035@\232\231\231\231\231\371Q@\t\033\236^)\313\010@\000\000\000\000\000\000\034@\000\000\000\000\000\300k@ffffff2@fffff\316x@\341z\024\256G\341\031@\366]\021\374o%\323?\000\000\000\000\000\0004@\327\243p=\n\327\033@\000\000\000\000\000\000\000\000\031\004V\016-\262\335?\006\201\225C\213l\027@\315\314\314\314\314\014E@\236\357\247\306K\267\021@\000\000\000\000\000\000\010@\000\000\000\000\000\340k@\232\231\231\231\231\2312@fffffJx@\000\000\000\000\000\000*@\201[w\363T\007\364?\000\000\000\000\000\000\000\000H\341z\024\256G @\000\000\000\000\000\000\000\000\236\357\247\306K7\341?H\341z\024\256G\026@fffff\206X@\303\323+e\031b\016@\000\000\000\000\000\000\020@\000\000\000\000\0000s@\000\000\000\000\000\0005@\205\353Q\270\036\211w@\205\353Q\270\036\0055@Y4\235\235\014\216\202?\000\000\000\000\000\200V@\303\365(\\\217\302\007@\000\000\000\000\000\000\000\000\232\231\231\231\231\231\331?\'1\010\254\034Z\034@\315\314\314\314\314\3144@B>\350\331\254:\035@\000\000\000\000\000\000\360?\000\000\000\000\000\320q@\232\231\231\231\231\231.@\354Q\270\036\205\253x@ffffff\037@gDio\360\2457@\000\000\000\000\000\000\000\000\232\231\231\231\231\0312@\000\000\000\000\000\000\000\000F\266\363\375\324x\345?\205\353Q\270\036\205\031@\315\314\314\314\314\014X@\005\305\2171w-\366?\000\000\000\000\000\0008@\000\000\000\000\000\320\204@3333334@fffff\316x@q=\n\327\243\2607@\215\013\007B\262\200\251?\000\000\000\000\000\0005@\217\302\365(\\\217\026@\000\000\000\000\000\000\000\000\177j\274t\223\030\334?\313\241E\266\363\375\027@ffffff5@n4\200\267@B\033@\000\000\000\000\000\000\020@\000\000\000\000\000`n@\315\314\314\314\314\3140@fffff\316x@\\\217\302\365(\334 @\314bb\363qm\260?\000\000\000\000\000\000\000\000\327\243p=\n\327\027@\000\000\000\000\000\000\000\000V\016-\262\235\357\337?\010\254\034Zd\273\027@\315\314\314\314\314\014Q@\213\375e\367\344\341\n@\000\000\000\000\000\000\024@\000\000\000\000\000pq@3333333@fffff\316x@\\\217\302\365(\\#@\361\272~\301n\330\246?\000\000\000\000\000\0009@q=\n\327\243p\023@\000\000\000\000\000\000\000\000\335$\006\201\225C\333?`\345\320\"\333y\032@\232\231\231\231\231\231Q@_\007\316\031Q\232\025@\000\000\000\000\000\000\020@\000\000\000\000\000\220q@\000\000\000\000\000\0003@\256G\341z\024\272x@\341z\024\256G\341\034@w\020;S\350<\006@\000\000\000\000\000\000\000\000\024\256G\341z\2243@\000\000\000\000\000\000\000\000\254\034Zd;\337\353?\351&1\010\254\234\023@33333sX@\177\373:p\316\210\365?\000\000\000\000\000\000\024@\000\000\000\000\0000y@ffffff-@fffff\316x@\n\327\243p=J=@\345\3259\006d\257\267?\000\000\000\000\000\000>@\270\036\205\353Q\270\023@\000\000\000\000\000\000\000\0001\010\254\034Zd\333?\006\201\225C\213l\032@\232\231\231\231\231\031E@\246\nF%u\302\030@\000\000\000\000\000\000\030@\000\000\000\000\000\300r@\232\231\231\231\231\2310@\024\256G\341z\374w@{\024\256G\341z\035@:X\377\3470_\350?\000\000\000\000\000\0004@\303\365(\\\217\302\017@\000\000\000\000\000\000\000\000Nb\020X9\264\344?=\n\327\243p=\026@ffffffO@b\020X9\264\310\377?\000\000\000\000\000\000\024@\000\000\000\000\000\200p@\000\000\000\000\000\000*@fffff\206x@fffff\346$@kH\334c\351C\353?\000\000\000\000\000\000\000\000H\341z\024\256G @\000\000\000\000\000\000\000\000\236\357\247\306K7\341?\\\217\302\365(\334\027@\315\314\314\314\314LV@\224\366\006_\230\014\020@\000\000\000\000\000\000\020@\000\000\000\000\0000s@\000\000\000\000\000\0005@\024\256G\341z\210x@)\\\217\302\365\250+@#\241-\347R|\023@\000\000\000\000\000\000\000\000\232\231\231\231\231\0312@\000\000\000\000\000\000\000\000\331\316\367S\343\245\343?V\016-\262\235\357\031@ffffffW@\032\300[ Aq\002@\000\000\000\000\000\0008@\000\000\000\000\000\320\204@3333334@\217\302\365(\\\303x@\256G\341z\024\2562@\220\275\336\375\361\336\032@\000\000\000\000\000\000\000\000\232\231\231\231\231\0312@\000\000\000\000\000\000\000\0007\211A`\345\320\346?\345\320\"\333\371\376\032@fffff&W@\202\342\307\230\273\226\002@\000\000\000\000\000\0008@\000\000\000\000\000\320\204@3333334@{\024\256G\341z\324?q=\n\327\243p1@\265l\255/\022\332\316?\000\000\000\000\000\000\000\000\205\353Q\270\036\205\035@\000\000\000\000\000\000\000\000Zd;\337O\215\337?\242E\266\363\375T\030@\232\231\231\231\231\331E@\'\240\211\260\341\251\025@\000\000\000\000\000\000\024@\000\000\000\000\000\360q@\232\231\231\231\231\2313@fffff\316x@\024\256G\341z\224)@\273~\301n\330\266\300?\000\000\000\000\000\000\000\000\205\353Q\270\036\005$@\000\000\000\000\000\000\000\000\033/\335$\006\201\341?\260rh\221\355|\027@fffffFR@R\270\036\205\353\321\003@\000\000\000\000\000\000\030@\000\000\000\000\000\000{@\315\314\314\314\314\3141@\256G\341z\024*u@=\n\327\243p\275.@\345\355\010\247\005/\306?\000\000\000\000\000\000\000\000\341z\024\256Ga#@\000\000\000\000\000\000\000\000\270\036\205\353Q\270\342?\207\026\331\316\367\323\026@\000\000\000\000\000\000K@\313\020\307\272\270\r\003@\000\000\000\000\000\000\030@\000\000\000\000\000px@3333333@fffff\316x@\205\353Q\270\036\005(@M\241\363\032\273D\265?\000\000\000\000\000\000\000\000\256G\341z\024\256\003@\000\000\000\000\000\000\000\000\010\254\034Zd;\337?\321\"\333\371~j\026@33333sV@H\277}\0358\347\007@\000\000\000\000\000\000\010@\000\000\000\000\000 h@\315\314\314\314\314\3141@\000\000\000\000\000px@\366(\\\217\302\365+@,}\350\202\372\006#@\000\000\000\000\000\000\000\000\232\231\231\231\231\0312@\000\000\000\000\000\000\000\0007\211A`\345\320\346?\266\363\375\324x\351\032@fffff\206W@d]\334F\003\370\003@\000\000\000\000\000\0008@\000\000\000\000\000\320\204@3333334@\270\036\205\353Q\270\032@\366(\\\217\302\2652@\'1\010\254\034Z\264?\000\000\000\000\000\000N@\n\327\243p=\n\373?\000\000\000\000\000\000\000\000\347\373\251\361\322M\332?7\211A`\345P\032@33333\363A@\226\262\014q\254k%@\000\000\000\000\000\000\020@\000\000\000\000\000\260y@\315\314\314\314\314L2@\024\256G\341z,w@\366(\\\217\302\365\025@H\277}\0358g\002@\000\000\000\000\000\000\000\000\024\256G\341z\2243@\000\000\000\000\000\000\000\000\\\217\302\365(\\\343?-\262\235\357\247F\031@fffff\006X@\315\314\314\314\314\314\000@\000\000\000\000\000\000\024@\000\000\000\000\0000y@ffffff-@=\n\327\243p\221r@333333&@\177\274W\255L\370\037@\000\000\000\000\000\000\000\000\232\231\231\231\231\0312@\000\000\000\000\000\000\000\000ffffff\346?\024\256G\341z\024\026@\000\000\000\000\000\000Y@+\366\227\335\223\207\370?\000\000\000\000\000\0008@\000\000\000\000\000\320\204@3333334@fffff\316x@\217\302\365(\\\2178@#\370\337Jvl\264?\000\000\000\000\000\000D@\244p=\n\327\243\031@\000\000\000\000\000\000\000\000\317\367S\343\245\233\334?!\260rh\221\355\031@\315\314\314\314\314\014@@\344\203\236\315\252\217\020@\000\000\000\000\000\000\020@\000\000\000\000\000\300o@\232\231\231\231\231\2311@fffff\316x@\303\365(\\\217\302\034@\371\367\031\027\016\204\264?\000\000\000\000\000\000\000\000\327\243p=\n\327\027@\000\000\000\000\000\000\000\000V\016-\262\235\357\337?ffffff\027@\000\000\000\000\000\300D@\267b\177\331=y\017@\000\000\000\000\000\000\024@\000\000\000\000\000pq@3333333@fffff\316x@\n\327\243p=\212!@\231\323e1\261\371\300?\000\000\000\000\000\000\000\000\037\205\353Q\270\036!@\000\000\000\000\000\000\000\000\244p=\n\327\243\340?\201\225C\213lg\027@\315\314\314\314\314,X@\t\212\037c\356\332\000@\000\000\000\000\000\000\024@\000\000\000\000\000\000x@fffff\3464@\315\314\314\314\314\240x@\270\036\205\353Qx0@\260U\202\305\341\314\366?\000\000\000\000\000\000\000\000\024\256G\341z\2243@\000\000\000\000\000\000\000\000\254\034Zd;\337\353?\n\327\243p=\n\032@\000\000\000\000\000\000Y@7\032\300[ A\374?\000\000\000\000\000\000\024@\000\000\000\000\0000y@ffffff-@)\\\217\302\365\304v@\217\302\365(\\\217\035@\214\271k\t\371\240\327?\000\000\000\000\000\000\000\000\315\314\314\314\314\314#@\000\000\000\000\000\000\000\000\234\304 \260rh\341?\370S\343\245\233D\032@33333\323U@\341\013\223\251\202\321\014@\000\000\000\000\000\000\020@\000\000\000\000\000\000s@ffffff2@\327\243p=\n\273x@\217\302\365(\\\217\"@\345\355\010\247\005\177 @\000\000\000\000\000\000\000\000\232\231\231\231\231\0312@\000\000\000\000\000\000\000\0007\211A`\345\320\346?\337O\215\227n\222\035@33333\323X@\2201w-!\237\003@\000\000\000\000\000\0008@\000\000\000\000\000\320\204@3333334@R\270\036\205\353}w@=\n\327\243p\2750@v\375\202\335\260M @\000\000\000\000\000\000\000\000\232\231\231\231\231\0312@\000\000\000\000\000\000\000\000ffffff\346?\217\302\365(\\\217\025@\232\231\231\231\231\271X@J{\203/L\246\373?\000\000\000\000\000\0008@\000\000\000\000\000\320\204@3333334@fffff\316x@\232\231\231\231\231\3314@\340\333\364g?R\304?\000\000\000\000\000\000\000\000\037\205\353Q\270\236%@\000\000\000\000\000\000\000\000;\337O\215\227n\332?\362\322Mb\020\330\027@\000\000\000\000\000\2001@.\220\240\3701&\025@\000\000\000\000\000\000\020@\000\000\000\000\000\020s@3333333@\327\243p=\n\217w@\303\365(\\\217\302#@O\314z1\224\023\344?\000\000\000\000\000\000\000\000H\341z\024\256G @\000\000\000\000\000\000\000\000\236\357\247\306K7\341?\274t\223\030\004V\027@\000\000\000\000\000@L@t$\227\377\220\376\021@\000\000\000\000\000\000\020@\000\000\000\000\0000s@\000\000\000\000\000\0005@R\270\036\205\353\271x@q=\n\327\243\360 @{1\224\023\355*\022@\000\000\000\000\000\000\000\000\232\231\231\231\231\0312@\000\000\000\000\000\000\000\000\244p=\n\327\243\350?d;\337O\215\227\031@\000\000\000\000\000\000V@0L\246\nF%\004@\000\000\000\000\000\0008@\000\000\000\000\000\320\204@3333334@)\\\217\302\365hw@)\\\217\302\365(\037@\3377\276\366\314\222\240?\000\000\000\000\000\000\000\000q=\n\327\243p\001@\000\000\000\000\000\000\000\000\035Zd;\337O\335?\313\241E\266\363\375\033@fffff\346F@\253>W[\261?\030@\000\000\000\000\000\000\010@\000\000\000\000\000\300k@33333\2632@\256G\341z\024\252x@\205\353Q\270\036\205\007@Yni5$\356\241?\000\000\000\000\000\000T@\315\314\314\314\314\314\023@\000\000\000\000\000\000\000\000\347\373\251\361\322M\332?\213l\347\373\251q\033@fffff\346;@\326\305m4\200w\024@\000\000\000\000\000\000\020@\000\000\000\000\000\240n@3333333@fffff\316x@\244p=\n\327\243\n@\317\203\273\263v[\037@\000\000\000\000\000\000\000\000\232\231\231\231\231\0312@\000\000\000\000\000\000\000\000\366(\\\217\302\365\344?\274t\223\030\004\326\030@\232\231\231\231\231YP@0\273\'\017\013\265\007@\000\000\000\000\000\0008@\000\000\000\000\000\320\204@3333334@fffff\316x@q=\n\327\243p*@\225+\274\313E|\365?\000\000\000\000\000\000\000\000\024\256G\341z\2243@\000\000\000\000\000\000\000\000\\\217\302\365(\\\343?\335$\006\201\225C\030@\000\000\000\000\000\000Y@=,\324\232\346\035\374?\000\000\000\000\000\000\024@\000\000\000\000\0000y@ffffff-@\n\327\243p=\036v@\270\036\205\353Q\270\031@aO;\37459\022@\000\000\000\000\000\000\000\000\232\231\231\231\231\0312@\000\000\000\000\000\000\000\000`\345\320\"\333\371\346?\260rh\221\355|\014@\232\231\231\231\231\371U@\344\203\236\315\252\317\371?\000\000\000\000\000\0008@\000\000\000\000\000\320\204@3333334@33333+v@{\024\256G\341z\034@\232\231\231\231\231\231\271?\000\000\000\000\000\000A@\\\217\302\365(\\\030@\000\000\000\000\000\000\000\000\203\300\312\241E\266\333?!\260rh\221\355\033@33333\2631@\326\305m4\200\367\025@\000\000\000\000\000\000\034@\000\000\000\000\000\220t@\232\231\231\231\231\0310@{\024\256G\341fx@q=\n\327\243p\023@\240\211\260\341\351\225\320?\000\000\000\000\000\000\000\000\244p=\n\327\3435@\000\000\000\000\000\000\000\000+\207\026\331\316\367\343?\022\203\300\312\241\305\026@\000\000\000\000\000\000X@\"\375\366u\340\234\374?\000\000\000\000\000\000\020@\000\000\000\000\000P{@3333335@\366(\\\217\302\201x@q=\n\327\24301@\324+e\031\342X\247?\000\000\000\000\000\000\000\000H\341z\024\256\307+@\000\000\000\000\000\000\360?\232\231\231\231\231\231\341?Zd;\337O\215\027@\000\000\000\000\000\000L@\204\rO\257\224\345\010@\000\000\000\000\000\000\024@\000\000\000\000\000@q@ffffff0@\315\314\314\314\314\214x@\205\353Q\270\036\005+@I\272f\362\3156\325?\000\000\000\000\000\000\000\000\315\314\314\314\314\314\030@\000\000\000\000\000\000\000\000\323Mb\020X9\340?X9\264\310v~ @\232\231\231\231\231\231Q@e\031\342X\0277\r@\000\000\000\000\000\000 @\000\000\000\000\0000s@ffffff1@33333\257w@\232\231\231\231\231\231\017@\276\331\346\306\364\204\245?\000\000\000\000\000\000<@\024\256G\341z\024.@\000\000\000\000\000\000\000\000\031\004V\016-\262\335?\370S\343\245\233\304\031@\315\314\314\314\314\314J@O@\023a\303S\r@\000\000\000\000\000\000\020@\000\000\000\000\000\340p@3333332@\\\217\302\365(\260x@R\270\036\205\353Q @\314@e\374\373\214\337?\000\000\000\000\000\000\000\000\315\314\314\314\314\314#@\000\000\000\000\000\000\000\000\234\304 \260rh\341?\n\327\243p=\212\032@\000\000\000\000\000\240T@\n\327\243p=\212\n@\000\000\000\000\000\000\020@\000\000\000\000\000\000s@ffffff2@fffff\316x@)\\\217\302\365(\022@\3377\276\366\314\222\003@\000\000\000\000\000\000\000\000\024\256G\341z\2243@\000\000\000\000\000\000\000\000\254\034Zd;\337\353?J\014\002+\207\026\025@\000\000\000\000\000\200W@\361c\314]K\310\373?\000\000\000\000\000\000\024@\000\000\000\000\0000y@ffffff-@\270\036\205\353Q(V@\244p=\n\327#0@\260U\202\305\341\254\022@\000\000\000\000\000\000\000\000\232\231\231\231\231\0312@\000\000\000\000\000\000\000\0007\211A`\345\320\346?\201\225C\213l\347\027@\232\231\231\231\231\371U@\367u\340\234\021\245\004@\000\000\000\000\000\0008@\000\000\000\000\000\320\204@3333334@\366(\\\217\302\365$@\303\365(\\\217\0023@\226x@\331\224\013\021@\000\000\000\000\000\000\000\000\232\231\231\231\231\0312@\000\000\000\000\000\000\000\000\244p=\n\327\243\350?\246\233\304 \260r\030@33333ST@\030&S\005\243\022\004@\000\000\000\000\000\0008@\000\000\000\000\000\320\204@3333334@\244p=\n\327kx@\327\243p=\nW)@]\376C\372\355\2333@\000\000\000\000\000\000\000\000\232\231\231\231\231\0312@\000\000\000\000\000\000\000\000F\266\363\375\324x\345?\215\227n\022\203@\035@\232\231\231\231\231yX@\310\230\273\226\220\017\365?\000\000\000\000\000\0008@\000\000\000\000\000\320\204@3333334@fffff\316x@\341z\024\256G\341*@->\005\300x\006\362?\000\000\000\000\000\000\000\000\024\256G\341z\2243@\000\000\000\000\000\000\360?\254\034Zd;\337\353??5^\272I\014\024@\000\000\000\000\000\000V@\245N@\023a\303\371?\000\000\000\000\000\000\024@\000\000\000\000\0000y@ffffff-@\024\256G\341ztu@=\n\327\243p=(@0*\251\023\320d8@\000\000\000\000\000\000\000\000\232\231\231\231\231\0312@\000\000\000\000\000\000\000\000ffffff\346?\317\367S\343\245\233\022@\000\000\000\000\000\000Y@(\017\013\265\246y\367?\000\000\000\000\000\0008@\000\000\000\000\000\320\204@3333334@fffff\316x@H\341z\024\256G<@\022\245\275\301\027&\325?\000\000\000\000\000\000\000\000\315\314\314\314\314\314\030@\000\000\000\000\000\000\000\000\323Mb\020X9\340?\362\322Mb\020X\030@\000\000\000\000\000\300N@e\031\342X\0277\r@\000\000\000\000\000\000 @\000\000\000\000\0000s@ffffff1@\000\000\000\000\000\214w@\303\365(\\\217\302%@\272f\362\31567\302?\000\000\000\000\000\000\000\000\205\353Q\270\036\005$@\000\000\000\000\000\000\000\000\033/\335$\006\201\341?j\274t\223\030\004\031@\315\314\314\314\314\014U@Zd;\337O\r\002@\000\000\000\000\000\000\030@\000\000\000\000\000\000{@\315\314\314\314\314\3141@\244p=\n\327Kx@fffff\346$@d#\020\257\353\027\332?\000\000\000\000\000\000\000\000\315\314\314\314\314\314\030@\000\000\000\000\000\000\360?\323Mb\020X9\340?\016-\262\235\357\247\030@33333\323V@\374\251\361\322Mb\010@\000\000\000\000\000\000 @\000\000\000\000\0000s@ffffff1@\244p=\n\327\263x@\366(\\\217\302u5@]\304wb\326\213\241?\000\000\000\000\000\000\000\000\303\365(\\\217\302\024@\000\000\000\000\000\000\000\000{\024\256G\341z\340?`\345\320\"\333y\027@fffff&G@\"lxz\245\354\024@\000\000\000\000\000\000\024@\000\000\000\000\000\000l@3333334@fffff\316x@\232\231\231\231\231\231#@\224\3367\276\366\314\272?\000\000\000\000\000\000D@\244p=\n\327\243\031@\000\000\000\000\000\000\360?\317\367S\343\245\233\334?\305 \260rh\021\035@\000\000\000\000\000\200H@\022\245\275\301\027&\023@\000\000\000\000\000\000\020@\000\000\000\000\000\300o@\232\231\231\231\231\2311@\000\000\000\000\000Tx@333333\030@\007_\230L\025,\025@\000\000\000\000\000\000\000\000\232\231\231\231\231\0312@\000\000\000\000\000\000\000\000ffffff\346?Nb\020X94\030@\000\000\000\000\000\240T@\201&\302\206\247W\001@\000\000\000\000\000\0008@\000\000\000\000\000\320\204@3333334@\256G\341z\024\246w@\303\365(\\\217\3022@\314]K\310\007-C@\000\000\000\000\000\000\000\000\232\231\231\231\231\0312@\000\000\000\000\000\000\000\000\223\030\004V\016-\346?\035Zd;\337\317\025@\000\000\000\000\000\000Y@\023\362A\317f\325\367?\000\000\000\000\000\0008@\000\000\000\000\000\320\204@3333334@fffff\316x@\327\243p=\n\227>@I\235\200&\302&/@\000\000\000\000\000\000\000\000\232\231\231\231\231\0312@\000\000\000\000\000\000\000\000\217\302\365(\\\217\342?Nb\020X9\264\027@\000\000\000\000\000\300Q@\277}\0358gD\007@\000\000\000\000\000\0008@\000\000\000\000\000\320\204@3333334@\244p=\n\327\013w@\341z\024\256G!2@\017\326\3779\314\027\362?\000\000\000\000\000\000\000\000H\341z\024\256G @\000\000\000\000\000\000\000\000\236\357\247\306K7\341?\'1\010\254\034\332\026@fffff\206W@;\337O\215\227\356\020@\000\000\000\000\000\000\020@\000\000\000\000\0000s@\000\000\000\000\000\0005@\037\205\353Q\270\202v@\232\231\231\231\231\2316@*\221D/\243\230\003@\000\000\000\000\000\000\000\000\024\256G\341z\2243@\000\000\000\000\000\000\000\000\\\217\302\365(\\\343?\317\367S\343\245\233\031@\315\314\314\314\314\314W@\232\231\231\231\231\031\002@\000\000\000\000\000\000\024@\000\000\000\000\0000y@ffffff-@q=\n\327\243\240t@\244p=\n\327\243&@vq\033\r\340\3351@\000\000\000\000\000\000\000\000\232\231\231\231\231\0312@\000\000\000\000\000\000\000\000F\266\363\375\324x\345?1\010\254\034Z\344\030@\000\000\000\000\000\000Y@\005\305\2171w-\366?\000\000\000\000\000\0008@\000\000\000\000\000\320\204@3333334@\244p=\n\327\233x@H\341z\024\256\3075@\372~j\274t\223.@\000\000\000\000\000\000\000\000\232\231\231\231\231\0312@\000\000\000\000\000\000\000\000F\266\363\375\324x\345?\177j\274t\223\230\032@33333SW@\024?\306\334\265\204\365?\000\000\000\000\000\0008@\000\000\000\000\000\320\204@3333334@\270\036\205\353Q\260v@=\n\327\243p=7@\200\267@\202\342\247<@\000\000\000\000\000\000\000\000\232\231\231\231\231\0312@\000\000\000\000\000\000\000\000\264\310v\276\237\032\343?\037\205\353Q\270\236\024@\000\000\000\000\000\000Y@\3122\304\261.n\371?\000\000\000\000\000\0008@\000\000\000\000\000\320\204@3333334@\327\243p=\n_j@\024\256G\341z\0244@\2201w-!\237\366?\000\000\000\000\000\000\000\000\024\256G\341z\2243@\000\000\000\000\000\000\360?\254\034Zd;\337\353?j\274t\223\030\204\030@\000\000\000\000\000\000X@Z\365\271\332\212\375\373?\000\000\000\000\000\000\024@\000\000\000\000\0000y@ffffff-@\270\036\205\353Q\020t@=\n\327\243p=.@\321\226s)\256*\273?\000\000\000\000\000\000>@\270\036\205\353Q\270\023@\000\000\000\000\000\000\000\0001\010\254\034Zd\333?\341z\024\256Ga\030@fffffFP@\016\2760\231*X\031@\000\000\000\000\000\000\030@\000\000\000\000\000\300r@\232\231\231\231\231\2310@R\270\036\205\353\251x@\315\314\314\314\314\314(@\306\341\314\257\346\000\261?\000\000\000\000\000\000\000\000333333\020@\000\000\000\000\000\000\000\000R\270\036\205\353Q\340?q=\n\327\243p\033@\232\231\231\231\231\231R@\373:p\316\210R\007@\000\000\000\000\000\000\024@\000\000\000\000\000\200r@\232\231\231\231\231\2310@\270\036\205\353Qtx@\256G\341z\024\256\033@\313\271\024W\225\235\035@\000\000\000\000\000\000\000\000\232\231\231\231\231\0312@\000\000\000\000\000\000\000\000\264\310v\276\237\032\343?+\207\026\331\316w\026@\232\231\231\231\231yX@\365\333\327\201sF\367?\000\000\000\000\000\0008@\000\000\000\000\000\320\204@3333334@\n\327\243p=\252s@ffffff:@Uj\366@+0\264?\000\000\000\000\000\000T@\315\314\314\314\314\314\023@\000\000\000\000\000\000\000\000\347\373\251\361\322M\332?d;\337O\215\227\034@33333\263;@\326\305m4\200w\024@\000\000\000\000\000\000\020@\000\000\000\000\000\240n@3333333@fffff\316x@{\024\256G\341z\014@\213\246\263\223\301Q\242?\000\000\000\000\000\0004@\244p=\n\327\243\n@\000\000\000\000\000\000\000\000c\177\331=yX\334?H\341z\024\256G\037@\000\000\000\000\000 P@\363\037\322o_\307\022@\000\000\000\000\000\000\024@\000\000\000\000\000\000k@\315\314\314\314\314\314-@)\\\217\302\3654x@\024\256G\341z\024\016@\240l\312\025\336\245\002@\000\000\000\000\000\000\000\000\024\256G\341z\2243@\000\000\000\000\000\000\000\000\254\034Zd;\337\353?X9\264\310v\276\024@33333sW@\267b\177\331=y\370?\000\000\000\000\000\000\024@\000\000\000\000\0000y@ffffff-@\244p=\n\327Ov@R\270\036\205\353Q<@Dn\206\033\360\371\261?\000\000\000\000\000\000\000\000333333\020@\000\000\000\000\000\000\000\000R\270\036\205\353Q\340?\024\256G\341z\024\030@\232\231\231\231\231\231G@8gDiop\014@\000\000\000\000\000\000\024@\000\000\000\000\000\200r@\232\231\231\231\231\2310@H\341z\024\256\223x@\270\036\205\353Q8$@)?\251\366\351x\254?\000\000\000\000\000\200Q@\354Q\270\036\205\353\001@\000\000\000\000\000\000\000\000\232\231\231\231\231\231\331?D\213l\347\373)\034@\000\000\000\000\000\000$@\344\203\236\315\252O\037@\000\000\000\000\000\000\024@\000\000\000\000\000`v@\232\231\231\231\231\231-@\341z\024\256G9w@\366(\\\217\302\365\022@\375M(D\300!\244?\000\000\000\000\000\000\000\000H\341z\024\256G\013@\000\000\000\000\000\000\000\000\262\235\357\247\306K\337?\037\205\353Q\270\236\031@\232\231\231\231\231yR@[\261\277\354\236\274\010@\000\000\000\000\000\000\000@\000\000\000\000\000\340p@\315\314\314\314\314\3141@\315\314\314\314\314\230x@ffffff @2\311\310Y\330\323\324?\000\000\000\000\000\000\000\000\244p=\n\327\3435@\000\000\000\000\000\000\000\000+\207\026\331\316\367\343?\323Mb\020X\271\031@33333\263X@\000\000\000\000\000\000\375?\000\000\000\000\000\000\020@\000\000\000\000\000P{@3333335@fffff\316x@H\341z\024\256\307.@\304\224H\242\227Q\363?\000\000\000\000\000\000\000\000\024\256G\341z\2243@\000\000\000\000\000\000\000\000\\\217\302\365(\\\343?\000\000\000\000\000\200\027@fffff\246W@c\356ZB>h\003@\000\000\000\000\000\000\024@\000\000\000\000\0000y@ffffff-@q=\n\327\243Dr@\\\217\302\365(\334,@\t3m\377\312J\243?\000\000\000\000\000\000T@R\270\036\205\353Q\370?\000\000\000\000\000\000\000\000B`\345\320\"\333\331?\177j\274t\223\030\035@fffff&C@#\333\371~j<\035@\000\000\000\000\000\000\000@\000\000\000\000\000\220t@333333)@33333\203x@{\024\256G\341z\032@\2201w-!\037\224?\000\000\000\000\000\000T@)\\\217\302\365(\374?\000\000\000\000\000\000\000\000\244p=\n\327\243\330?\354Q\270\036\205\353\030@\000\000\000\000\000\200?@=\233U\237\253-\"@\000\000\000\000\000\000\360?\000\000\000\000\000 n@3333332@\232\231\231\231\231Yu@\\\217\302\365(\334)@q=\n\327\243p\235?\000\000\000\000\000\000<@\024\256G\341z\024.@\000\000\000\000\000\000\000\000\031\004V\016-\262\335?\362\322Mb\020\330\030@fffff\346<@O@\023a\303S\r@\000\000\000\000\000\000\020@\000\000\000\000\000\340p@3333332@\341z\024\256G\305x@\327\243p=\n\327\030@\201C\250R\263G\014@\000\000\000\000\000\000\000\000\024\256G\341z\2243@\000\000\000\000\000\000\360?\254\034Zd;\337\353?\317\367S\343\245\233\030@fffff\246T@!\260rh\221\355\373?\000\000\000\000\000\000\024@\000\000\000\000\0000y@ffffff-@q=\n\327\243\000V@\n\327\243p=\n.@\316\245\270\252\354\273\242?\000\000\000\000\000\0009@q=\n\327\243p\023@\000\000\000\000\000\000\000\000\335$\006\201\225C\333?h\221\355|?5\031@\232\231\231\231\231\031@@_\007\316\031Q\232\025@\000\000\000\000\000\000\020@\000\000\000\000\000\220q@\000\000\000\000\000\0003@fffff\316x@\341z\024\256G\341\032@\034\323\023\226x@\251?\000\000\000\000\000\200@@q=\n\327\243p\001@\000\000\000\000\000\000\000\000h\221\355|?5\336?L7\211A`e\033@33333\223Q@g\325\347j+v\t@\000\000\000\000\000\000\034@\000\000\000\000\000\300k@ffffff2@fffff\316x@\037\205\353Q\270\036\036@\335^\322\030\255c\r@\000\000\000\000\000\000\000\000\232\231\231\231\231\0312@\000\000\000\000\000\000\000\000\016-\262\235\357\247\342?sh\221\355|?\031@33333\363I@\254\213\333h\000\357\017@\000\000\000\000\000\0008@\000\000\000\000\000\320\204@3333334@R\270\036\205\353Ix@)\\\217\302\365(%@\231\r2\311\310Y\270?\000\000\000\000\000\000\000\000)\\\217\302\365\250)@\000\000\000\000\000\000\000\000+\207\026\331\316\367\333?\276\237\032/\335$\031@\000\000\000\000\000\200F@\337\340\013\223\251\002\022@\000\000\000\000\000\000\024@\000\000\000\000\000\340x@33333\2632@H\341z\024\256\363w@\341z\024\256G\341!@\371\240g\263\352s\305?\000\000\000\000\000\000\000\000\205\353Q\270\036\205\035@\000\000\000\000\000\000\000\000Zd;\337O\215\337?Nb\020X9\264\031@fffff&J@\232\010\033\236^)\022@\000\000\000\000\000\000\024@\000\000\000\000\000\360q@\232\231\231\231\231\2313@fffff\316x@\315\314\314\314\314\314\034@\177M\326\250\207h\352?\000\000\000\000\000\0004@\303\365(\\\217\302\017@\000\000\000\000\000\000\000\000Nb\020X9\264\344?\002+\207\026\331N\035@\000\000\000\000\000\240W@\376e\367\344a\241\000@\000\000\000\000\000\000\024@\000\000\000\000\000\200p@\000\000\000\000\000\000*@\037\205\353Q\270\226x@\000\000\000\000\000\200&@\266\333.4\327i\310?\000\000\000\000\000\0006@q=\n\327\243p\027@\000\000\000\000\000\000\000\000/\335$\006\201\225\333?\254\034Zd;\337\032@\000\000\000\000\000\2001@u\223\030\004VN\037@\000\000\000\000\000\000\034@\000\000\000\000\000\240t@\232\231\231\231\231\0313@\244p=\n\327\233x@=\n\327\243p=\032@(a\246\355_Y\301?\000\000\000\000\000\000)@H\341z\024\256G\030@\000\000\000\000\000\000\000\000\223\030\004V\016-\332?\307K7\211A`\026@ffffffB@\313\241E\266\363\375\031@\000\000\000\000\000\000\020@\000\000\000\000\000\220u@fffff\3462@fffff\316x@\256G\341z\024.*@\004s\364\370\275M\267?\000\000\000\000\000\000\000\000\256G\341z\024\256\003@\000\000\000\000\000\000\000\000\010\254\034Zd;\337?\037\205\353Q\270\236\034@\315\314\314\314\314\014W@\355\236<,\324\232\005@\000\000\000\000\000\000\010@\000\000\000\000\000 h@\315\314\314\314\314\3141@R\270\036\205\353\241x@H\341z\024\256G\023@\016\2760\231*\030\351?\000\000\000\000\000\000\000\000H\341z\024\256G @\000\000\000\000\000\000\000\000\236\357\247\306K7\341?\366(\\\217\302\365\027@\315\314\314\314\314lT@\271\215\006\360\026\010\021@\000\000\000\000\000\000\020@\000\000\000\000\0000s@\000\000\000\000\000\0005@\000\000\000\000\000,x@\327\243p=\nW-@\373\221\"2\254\342\333?\000\000\000\000\000\000\000\000\256G\341z\024.%@\000\000\000\000\000\000\360?\262\235\357\247\306K\337?\307K7\211A`\025@\000\000\000\000\000\000Y@\000\000\000\000\000\000\017@\000\000\000\000\000\000\020@\000\000\000\000\000Pq@\232\231\231\231\231\2312@fffff\316x@\327\243p=\n\0277@\0054\0216<\3158@\000\000\000\000\000\000\000\000\232\231\231\231\231\0312@\000\000\000\000\000\000\000\000\223\030\004V\016-\346?L7\211A`e\025@\000\000\000\000\000\000X@\221\017z6\253>\373?\000\000\000\000\000\0008@\000\000\000\000\000\320\204@3333334@fffff\316x@\205\353Q\270\036\3053@\356_YiR\n\232?\000\000\000\000\000\200K@=\n\327\243p=\016@\000\000\000\000\000\000\000\000`\345\320\"\333\371\336?b\020X9\264\310\032@333333L@=\233U\237\253\355\026@\000\000\000\000\000\000\024@\000\000\000\000\000 w@\232\231\231\231\231\2311@fffff\316x@\270\036\205\353Q\270\034@\320\325V\354/[+@\000\000\000\000\000\000\000\000\232\231\231\231\231\0312@\000\000\000\000\000\000\000\000\256G\341z\024\256\347?=\n\327\243p\275\027@\232\231\231\231\231\371U@\305\2171w-!\375?\000\000\000\000\000\0008@\000\000\000\000\000\320\204@3333334@\315\314\314\314\314<Q@\303\365(\\\217\002A@,e\031\342X7&@\000\000\000\000\000\000\000\000\232\231\231\231\231\0312@\000\000\000\000\000\000\000\000\307K7\211A`\345?9\264\310v\276\237\023@\000\000\000\000\000\000Y@Dio\360\205\311\362?\000\000\000\000\000\0008@\000\000\000\000\000\320\204@3333334@fffff\316x@\303\365(\\\217bA@\217\344\362\037\322\3170@\000\000\000\000\000\000\000\000\232\231\231\231\231\0312@\000\000\000\000\000\000\000\000ffffff\346?\317\367S\343\245\033\025@fffff\206X@\2505\315;N\321\366?\000\000\000\000\000\0008@\000\000\000\000\000\320\204@3333334@fffff\316x@\217\302\365(\\\317>@2U0*\251\323+@\000\000\000\000\000\000\000\000\232\231\231\231\231\0312@\000\000\000\000\000\000\000\0007\211A`\345\320\346?\242E\266\363\375\324\030@\000\000\000\000\000\300W@\236^)\313\020\307\001@\000\000\000\000\000\0008@\000\000\000\000\000\320\204@3333334@\270\036\205\353Q(Y@\327\243p=\nW.@\246\325\220\270\307r#@\000\000\000\000\000\000\000\000\232\231\231\231\231\0312@\000\000\000\000\000\000\000\000\256G\341z\024\256\347?9\264\310v\276\237\031@\315\314\314\314\314LX@\276\301\027&S\205\000@\000\000\000\000\000\0008@\000\000\000\000\000\320\204@3333334@\217\302\365(\\\037x@\205\353Q\270\036\2053@!\223\214\234\205=\321?\000\000\000\000\000\000\000\000\315\314\314\314\314\314#@\000\000\000\000\000\000\000\000\234\304 \260rh\341?\252\361\322Mb\020\031@33333\263T@C\034\353\3426\032\n@\000\000\000\000\000\000\020@\000\000\000\000\000\000s@ffffff2@\n\327\243p=\226x@\232\231\231\231\231\231\037@\273\270\215\006\360v\"@\000\000\000\000\000\000\000\000\232\231\231\231\231\0312@\000\000\000\000\000\000\000\000\376\324x\351&1\344?w\276\237\032/\335\030@\000\000\000\000\000\000Y@\277\016\2343\242\264\362?\000\000\000\000\000\0008@\000\000\000\000\000\320\204@3333334@fffff\342v@\217\302\365(\\\017#@\273\'\017\013\265\306\031@\000\000\000\000\000\000\000\000\232\231\231\231\231\0312@\000\000\000\000\000\000\000\000\343\245\233\304 \260\342?33333\263\031@33333\263R@|\362\260Pk\232\001@\000\000\000\000\000\0008@\000\000\000\000\000\320\204@3333334@\315\314\314\314\314|X@\217\302\365(\\\017(@`\260\033\266-\312\300?\000\000\000\000\000\000\000\000\037\205\353Q\270\036!@\000\000\000\000\000\000\000\000\244p=\n\327\243\340?5^\272I\014\202\030@\315\314\314\314\314LU@B>\350\331\254\372\000@\000\000\000\000\000\000\024@\000\000\000\000\000\000x@fffff\3464@\327\243p=\n;x@\256G\341z\024.,@\313\326\372\"\241-\247?\000\000\000\000\000\000\000\000\\\217\302\365(\334\'@\000\000\000\000\000\000\000\000\274t\223\030\004V\342?{\024\256G\341z\030@\315\314\314\314\314,S@\315\314\314\314\314L\002@\000\000\000\000\000\000\360?\000\000\000\000\000\020q@\000\000\000\000\000\0005@fffff\316x@)\\\217\302\365(\"@\212Y/\206r\242\305?\000\000\000\000\000\000\000\000fffff\2469@\000\000\000\000\000\000\000\000d;\337O\215\227\342?\213l\347\373\251\361\027@\232\231\231\231\231\031V@\245,C\034\353\342\377?\000\000\000\000\000\000\000@\000\000\000\000\000\200g@\232\231\231\231\231\0313@\270\036\205\353Q\020x@\037\205\353Q\270\236-@#gaO;\374\245?\000\000\000\000\000\000<@\024\256G\341z\024.@\000\000\000\000\000\000\000\000\031\004V\016-\262\335?\345\320\"\333\371\376\030@33333SS@\354Q\270\036\205\353\014@\000\000\000\000\000\000\020@\000\000\000\000\000\340p@3333332@fffff\316x@\256G\341z\024.%@\321W\220f,\232\341?\000\000\000\000\000\0004@\303\365(\\\217\302\017@\000\000\000\000\000\000\000\000Nb\020X9\264\344?m\347\373\251\361\322\034@fffff\346V@R\'\240\211\260\341\376?\000\000\000\000\000\000\024@\000\000\000\000\000\200p@\000\000\000\000\000\000*@\n\327\243p=>x@333333 @\034\010\311\002&\260\036@\000\000\000\000\000\000\000\000\232\231\231\231\231\0312@\000\000\000\000\000\000\000\000\223\030\004V\016-\346?\260rh\221\355\374\026@\232\231\231\231\231\271X@\030\225\324\th\"\372?\000\000\000\000\000\0008@\000\000\000\000\000\320\204@3333334@\232\231\231\231\231\221x@\354Q\270\036\205\3533@Z\273\355Bs\235\246?\000\000\000\000\000\200Q@\354Q\270\036\205\353\001@\000\000\000\000\000\000\000\000\232\231\231\231\231\231\331?\226C\213l\347{\033@33333\263G@\344\203\236\315\252O\037@\000\000\000\000\000\000\024@\000\000\000\000\000`v@\232\231\231\231\231\231-@\366(\\\217\302mx@H\341z\024\256G\030@_)\313\020\307\232)@\000\000\000\000\000\000\000\000\232\231\231\231\231\0312@\000\000\000\000\000\000\000\000\256G\341z\024\256\347?\321\"\333\371~j\027@fffff&X@\370\302d\252`T\376?\000\000\000\000\000\0008@\000\000\000\000\000\320\204@3333334@q=\n\327\243\020n@\n\327\243p=\3127@\336\223\207\205Z\223\r@\000\000\000\000\000\000\000\000\232\231\231\231\231\0312@\000\000\000\000\000\000\000\000`\345\320\"\333\371\346?\'1\010\254\034\332\023@\232\231\231\231\231\331V@(~\214\271k\t\374?\000\000\000\000\000\0008@\000\000\000\000\000\320\204@3333334@\024\256G\341z\300s@\000\000\000\000\000\000,@:z\374\336\246?\303?\000\000\000\000\000\000\000\000fffff\2469@\000\000\000\000\000\000\000\000d;\337O\215\227\342?\006\201\225C\213l\027@\000\000\000\000\000@X@xz\245,C\034\377?\000\000\000\000\000\000\000@\000\000\000\000\000\200g@\232\231\231\231\231\0313@)\\\217\302\365$w@)\\\217\302\365h9@_\007\316\031Q\332\213?\000\000\000\000\000\300R@\000\000\000\000\000\000\020@\000\000\000\000\000\000\000\000=\n\327\243p=\332?Zd;\337O\215\027@\315\314\314\314\314\314G@\363\037\322o_G\035@\000\000\000\000\000\000\010@\000\000\000\000\000P}@\232\231\231\231\231\0315@fffff\316x@\232\231\231\231\231\231-@\3745Y\243\036\242\261?\000\000\000\000\000\000\000\000\256G\341z\024\256\003@\000\000\000\000\000\000\000\000\010\254\034Zd;\337?\372~j\274t\223\030@\232\231\231\231\231\031O@*:\222\313\177\310\004@\000\000\000\000\000\000\010@\000\000\000\000\000 h@\315\314\314\314\314\3141@fffff\316x@fffff\346\"@\273\325s\322\373&\031@\000\000\000\000\000\000\000\000\232\231\231\231\231\0312@\000\000\000\000\000\000\000\000\256G\341z\024\256\347?w\276\237\032/]\031@\232\231\231\231\231\031X@\372~j\274t\223\000@\000\000\000\000\000\0008@\000\000\000\000\000\320\204@3333334@\\\217\302\365(\340s@\n\327\243p=\3121@C\377\004\027+j\344?\000\000\000\000\000\000\000\000H\341z\024\256G @\000\000\000\000\000\000\000\000\236\357\247\306K7\341?\374\251\361\322Mb\030@\000\000\000\000\000 U@\360\026HP\374\330\021@\000\000\000\000\000\000\020@\000\000\000\000\0000s@\000\000\000\000\000\0005@\270\036\205\353Q\300w@\205\353Q\270\036\205$@\3230|DL\211\244?\000\000\000\000\000\000T@R\270\036\205\353Q\370?\000\000\000\000\000\000\000\000B`\345\320\"\333\331?\331\316\367S\343%\035@\315\314\314\314\314\014A@#\333\371~j<\035@\000\000\000\000\000\000\000@\000\000\000\000\000\220t@333333)@fffff\316x@R\270\036\205\353Q\020@\225\232=\320\n\214\006@\000\000\000\000\000\000\000\000\232\231\231\231\231\0312@\000\000\000\000\000\000\000\000\240\032/\335$\006\341??5^\272I\014\027@fffff&D@\206\311T\301\250d\020@\000\000\000\000\000\0008@\000\000\000\000\000\320\204@3333334@\037\205\353Q\270\216x@\327\243p=\n\327$@\202\220,`\002\267\266?\000\000\000\000\000\0005@\217\302\365(\\\217\026@\000\000\000\000\000\000\000\000\177j\274t\223\030\334?\'1\010\254\034\332\027@\232\231\231\231\231\331F@n4\200\267@B\033@\000\000\000\000\000\000\020@\000\000\000\000\000`n@\315\314\314\314\314\3140@)\\\217\302\365\270x@fffff\346*@\300\004n\335\315S\215?\000\000\000\000\000\000Y@\037\205\353Q\270\036\365?\000\000\000\000\000\000\000\000\347\373\251\361\322M\332?\335$\006\201\225C\033@\000\000\000\000\000@D@J{\203/L\246 @\000\000\000\000\000\000\024@\000\000\000\000\000\000p@333333.@fffff\216x@\232\231\231\231\231\231\017@,H3\026Mg\313?\000\000\000\000\000\0006@q=\n\327\243p\027@\000\000\000\000\000\000\000\000/\335$\006\201\225\333?\215\227n\022\203\300\031@\315\314\314\314\314\314!@\365JY\2068\226\035@\000\000\000\000\000\000\034@\000\000\000\000\000\240t@\232\231\231\231\231\0313@\205\353Q\270\036\221w@\270\036\205\353Q\270\014@A\237\310\223\244k\246?\000\000\000\000\000\000T@\366(\\\217\302\365\n@\000\000\000\000\000\000\000\000F\266\363\375\324x\331?\331\316\367S\343%\027@\232\231\231\231\231\031?@\031\004V\016-r\032@\000\000\000\000\000\000\020@\000\000\000\000\000\020u@\232\231\231\231\231\0310@fffff\316x@{\024\256G\341z$@\204d\001\023\270u\267?\000\000\000\000\000\000\000\000\037\205\353Q\270\236%@\000\000\000\000\000\000\000\000;\337O\215\227n\332?\303\365(\\\217B\030@333333\037@.\220\240\3701&\025@\000\000\000\000\000\000\020@\000\000\000\000\000\020s@3333333@\303\365(\\\217nx@\024\256G\341z\024\026@z\245,